{
  "vocab_size": 5000,
  "pad_token": "<PAD>",
  "unk_token": "<UNK>",
  "eos_token": "<EOS>",
  "token2id": {
    "<PAD>": 0,
    "<UNK>": 1,
    "<EOS>": 2,
    "!": 3,
    "\"": 4,
    "#": 5,
    "$": 6,
    "%": 7,
    "&": 8,
    "'": 9,
    "(": 10,
    ")": 11,
    "*": 12,
    "+": 13,
    ",": 14,
    "-": 15,
    ".": 16,
    "/": 17,
    "0": 18,
    "1": 19,
    "2": 20,
    "3": 21,
    "4": 22,
    "5": 23,
    "6": 24,
    "7": 25,
    "8": 26,
    "9": 27,
    ":": 28,
    ";": 29,
    "</w>": 30,
    "=": 31,
    "?": 32,
    "@": 33,
    "[": 34,
    "\\": 35,
    "]": 36,
    "^": 37,
    "_": 38,
    "`": 39,
    "a": 40,
    "b": 41,
    "c": 42,
    "d": 43,
    "e": 44,
    "f": 45,
    "g": 46,
    "h": 47,
    "i": 48,
    "j": 49,
    "k": 50,
    "l": 51,
    "m": 52,
    "n": 53,
    "o": 54,
    "p": 55,
    "q": 56,
    "r": 57,
    "s": 58,
    "t": 59,
    "u": 60,
    "v": 61,
    "w": 62,
    "x": 63,
    "y": 64,
    "z": 65,
    "{": 66,
    "|": 67,
    "}": 68,
    "~": 69,
    "¡": 70,
    "£": 71,
    "¦": 72,
    "¨": 73,
    "©": 74,
    "«": 75,
    "¬": 76,
    "°": 77,
    "´": 78,
    "¸": 79,
    "º": 80,
    "»": 81,
    "¿": 82,
    "ß": 83,
    "à": 84,
    "á": 85,
    "â": 86,
    "ã": 87,
    "ä": 88,
    "å": 89,
    "ç": 90,
    "è": 91,
    "é": 92,
    "ê": 93,
    "ë": 94,
    "ì": 95,
    "í": 96,
    "î": 97,
    "ï": 98,
    "ð": 99,
    "ñ": 100,
    "ó": 101,
    "ô": 102,
    "ö": 103,
    "÷": 104,
    "ø": 105,
    "ù": 106,
    "ú": 107,
    "û": 108,
    "ý": 109,
    "ā": 110,
    "č": 111,
    "ē": 112,
    "œ": 113,
    "ŕ": 114,
    "š": 115,
    "ŧ": 116,
    "ƪ": 117,
    "ɛ": 118,
    "ɲ": 119,
    "ʀ": 120,
    "ʃ": 121,
    "ʜ": 122,
    "ˆ": 123,
    "˘": 124,
    "˚": 125,
    "̅": 126,
    "̊": 127,
    "̣": 128,
    "̥": 129,
    "̲": 130,
    "̶": 131,
    "͡": 132,
    "έ": 133,
    "ί": 134,
    "α": 135,
    "β": 136,
    "γ": 137,
    "δ": 138,
    "ε": 139,
    "η": 140,
    "θ": 141,
    "ι": 142,
    "κ": 143,
    "λ": 144,
    "μ": 145,
    "ν": 146,
    "ο": 147,
    "π": 148,
    "ρ": 149,
    "ς": 150,
    "σ": 151,
    "τ": 152,
    "φ": 153,
    "ω": 154,
    "ό": 155,
    "є": 156,
    "ӈ": 157,
    "լ": 158,
    "ಠ": 159,
    "ก": 160,
    "ข": 161,
    "ง": 162,
    "จ": 163,
    "ญ": 164,
    "ต": 165,
    "ท": 166,
    "น": 167,
    "บ": 168,
    "ป": 169,
    "ผ": 170,
    "ม": 171,
    "ย": 172,
    "ร": 173,
    "ส": 174,
    "ห": 175,
    "อ": 176,
    "ะ": 177,
    "ั": 178,
    "า": 179,
    "ิ": 180,
    "ึ": 181,
    "ื": 182,
    "ู": 183,
    "฿": 184,
    "เ": 185,
    "ใ": 186,
    "ไ": 187,
    "็": 188,
    "้": 189,
    "ღ": 190,
    "​": 191,
    "‎": 192,
    "–": 193,
    "—": 194,
    "―": 195,
    "‘": 196,
    "’": 197,
    "“": 198,
    "”": 199,
    "†": 200,
    "•": 201,
    "…": 202,
    "‿": 203,
    "€": 204,
    "ℒ": 205,
    "ℕ": 206,
    "ℰ": 207,
    "ℳ": 208,
    "←": 209,
    "∗": 210,
    "∼": 211,
    "⋰": 212,
    "┌": 213,
    "┐": 214,
    "◄": 215,
    "◕": 216,
    "◠": 217,
    "◡": 218,
    "☀": 219,
    "☁": 220,
    "☃": 221,
    "★": 222,
    "☆": 223,
    "☑": 224,
    "☔": 225,
    "☛": 226,
    "☯": 227,
    "☹": 228,
    "☺": 229,
    "☼": 230,
    "☾": 231,
    "♏": 232,
    "♡": 233,
    "♥": 234,
    "♩": 235,
    "♪": 236,
    "♫": 237,
    "♬": 238,
    "⛄": 239,
    "✈": 240,
    "✌": 241,
    "✓": 242,
    "✔": 243,
    "✖": 244,
    "✡": 245,
    "✨": 246,
    "✽": 247,
    "✿": 248,
    "❁": 249,
    "❤": 250,
    "➨": 251,
    "⬅": 252,
    "。": 253,
    "ㄒ": 254,
    "姑": 255,
    "": 256,
    "": 257,
    "": 258,
    "": 259,
    "": 260,
    "": 261,
    "": 262,
    "": 263,
    "": 264,
    "": 265,
    "": 266,
    "": 267,
    "": 268,
    "": 269,
    "": 270,
    "": 271,
    "": 272,
    "": 273,
    "": 274,
    "": 275,
    "": 276,
    "": 277,
    "": 278,
    "": 279,
    "": 280,
    "": 281,
    "": 282,
    "": 283,
    "": 284,
    "": 285,
    "": 286,
    "": 287,
    "": 288,
    "": 289,
    "": 290,
    "": 291,
    "": 292,
    "": 293,
    "": 294,
    "": 295,
    "": 296,
    "": 297,
    "": 298,
    "": 299,
    "": 300,
    "": 301,
    "": 302,
    "": 303,
    "～": 304,
    "｡": 305,
    "￼": 306,
    "e</w>": 307,
    "t</w>": 308,
    "th": 309,
    "s</w>": 310,
    "d</w>": 311,
    "in": 312,
    "y</w>": 313,
    ".</w>": 314,
    "an": 315,
    "er": 316,
    "o</w>": 317,
    "en": 318,
    "on": 319,
    "ou": 320,
    "ing": 321,
    "or": 322,
    "i</w>": 323,
    "the</w>": 324,
    "ing</w>": 325,
    "a</w>": 326,
    "ar": 327,
    "ed</w>": 328,
    ",</w>": 329,
    "to</w>": 330,
    "al": 331,
    "re": 332,
    "ha": 333,
    "er</w>": 334,
    "f</w>": 335,
    "st": 336,
    "om": 337,
    "l</w>": 338,
    "and</w>": 339,
    "en</w>": 340,
    "at</w>": 341,
    "ch": 342,
    "is</w>": 343,
    "in</w>": 344,
    "wa": 345,
    "my</w>": 346,
    "of</w>": 347,
    "ow": 348,
    "ri": 349,
    "ti": 350,
    "el": 351,
    "on</w>": 352,
    "you": 353,
    "k</w>": 354,
    "wh": 355,
    "or</w>": 356,
    "it": 357,
    "le": 358,
    "am": 359,
    "ve</w>": 360,
    "sh": 361,
    "!</w>": 362,
    "st</w>": 363,
    "li": 364,
    "da": 365,
    "wi": 366,
    "..": 367,
    "oo": 368,
    "gh": 369,
    "be": 370,
    "at": 371,
    "ac": 372,
    "it</w>": 373,
    "ly</w>": 374,
    "for</w>": 375,
    "was</w>": 376,
    "me</w>": 377,
    "m</w>": 378,
    "se": 379,
    "an</w>": 380,
    "ma": 381,
    "you</w>": 382,
    "that</w>": 383,
    "th</w>": 384,
    "r</w>": 385,
    "ot</w>": 386,
    "di": 387,
    "es</w>": 388,
    "un": 389,
    "es": 390,
    "lo": 391,
    "p</w>": 392,
    "ow</w>": 393,
    "ro": 394,
    "il": 395,
    "ee": 396,
    "la": 397,
    "ra": 398,
    "when</w>": 399,
    "bu": 400,
    "ear": 401,
    "ic": 402,
    "se</w>": 403,
    "le</w>": 404,
    "ver": 405,
    "out</w>": 406,
    "qu": 407,
    "the": 408,
    "with</w>": 409,
    "ab": 410,
    "'s</w>": 411,
    "'t</w>": 412,
    "ur": 413,
    "day</w>": 414,
    "to": 415,
    "ke</w>": 416,
    "ex": 417,
    "not</w>": 418,
    "ge": 419,
    "pp": 420,
    "ld</w>": 421,
    "ss": 422,
    "ir": 423,
    "one</w>": 424,
    "de": 425,
    "have</w>": 426,
    "sa": 427,
    "me": 428,
    "ot": 429,
    "ght</w>": 430,
    "?</w>": 431,
    "wor": 432,
    "be</w>": 433,
    "ne": 434,
    "ent</w>": 435,
    "ch</w>": 436,
    "all</w>": 437,
    "ere</w>": 438,
    "pe": 439,
    "so</w>": 440,
    "had</w>": 441,
    "om</w>": 442,
    "g</w>": 443,
    "ju": 444,
    "this</w>": 445,
    "com": 446,
    "i'": 447,
    ";</w>": 448,
    "he</w>": 449,
    "si": 450,
    "n</w>": 451,
    "op": 452,
    "su": 453,
    "al</w>": 454,
    "but</w>": 455,
    "fri": 456,
    "ol": 457,
    "fu": 458,
    "mo": 459,
    "som": 460,
    "ent": 461,
    "as": 462,
    "go": 463,
    "ther</w>": 464,
    "ll</w>": 465,
    "mi": 466,
    "fr": 467,
    "ad": 468,
    "king</w>": 469,
    "ter</w>": 470,
    "ce</w>": 471,
    "are</w>": 472,
    "now</w>": 473,
    "de</w>": 474,
    "pa": 475,
    "just</w>": 476,
    "...</w>": 477,
    "con": 478,
    "quot": 479,
    "s.</w>": 480,
    "af": 481,
    "w</w>": 482,
    "for": 483,
    "ver</w>": 484,
    "ould</w>": 485,
    "mor": 486,
    "day": 487,
    "&quot": 488,
    "ally</w>": 489,
    "as</w>": 490,
    "ag": 491,
    "fe": 492,
    "frien": 493,
    "we</w>": 494,
    "up</w>": 495,
    "ca": 496,
    "i'm</w>": 497,
    "orr": 498,
    "bo": 499,
    "tion</w>": 500,
    "sp": 501,
    "wha": 502,
    "your</w>": 503,
    "ni": 504,
    "about</w>": 505,
    "she</w>": 506,
    "oun": 507,
    "ter": 508,
    "hi": 509,
    "ta": 510,
    ":</w>": 511,
    "per": 512,
    "don": 513,
    "his</w>": 514,
    "vi": 515,
    "par": 516,
    "te": 517,
    "do": 518,
    "amp": 519,
    "ss</w>": 520,
    "pre": 521,
    "d.</w>": 522,
    "ting</w>": 523,
    "her</w>": 524,
    "mu": 525,
    "e.</w>": 526,
    "wee": 527,
    "ted</w>": 528,
    "from</w>": 529,
    "tr": 530,
    "time</w>": 531,
    "ds</w>": 532,
    "get</w>": 533,
    "fin": 534,
    "of": 535,
    "ang": 536,
    "jo": 537,
    "ts</w>": 538,
    "..</w>": 539,
    "do</w>": 540,
    "very</w>": 541,
    "h</w>": 542,
    "what</w>": 543,
    "fa": 544,
    "like</w>": 545,
    "!!": 546,
    "he": 547,
    "id</w>": 548,
    "love</w>": 549,
    "am</w>": 550,
    "ear</w>": 551,
    "they</w>": 552,
    "our</w>": 553,
    "&amp": 554,
    "ack</w>": 555,
    "no": 556,
    "no</w>": 557,
    "ci": 558,
    "gi": 559,
    "ood</w>": 560,
    "by</w>": 561,
    "ving</w>": 562,
    "thing</w>": 563,
    ")</w>": 564,
    "happ": 565,
    "car": 566,
    "tom": 567,
    "some": 568,
    "hom": 569,
    "pro": 570,
    "&amp;</w>": 571,
    "n't</w>": 572,
    "y.</w>": 573,
    "can": 574,
    "loo": 575,
    "te</w>": 576,
    "cu": 577,
    "tion": 578,
    "em": 579,
    "ad</w>": 580,
    "tomorr": 581,
    "ght": 582,
    "ev": 583,
    "wan": 584,
    "don't</w>": 585,
    "ck": 586,
    "got</w>": 587,
    "po": 588,
    "gu": 589,
    "ir</w>": 590,
    "all": 591,
    "we": 592,
    "pu": 593,
    "ate</w>": 594,
    "chri": 595,
    "will</w>": 596,
    "ye": 597,
    "our": 598,
    "u</w>": 599,
    "min": 600,
    "go</w>": 601,
    "-</w>": 602,
    "ell</w>": 603,
    "can</w>": 604,
    "sh</w>": 605,
    "ying</w>": 606,
    "ame</w>": 607,
    "gr": 608,
    "gh</w>": 609,
    "ess</w>": 610,
    "peop": 611,
    "&quot;": 612,
    "christ": 613,
    "if</w>": 614,
    "cau": 615,
    "gre": 616,
    "der": 617,
    "ther": 618,
    "fi": 619,
    "br": 620,
    "back</w>": 621,
    "sel": 622,
    "going</w>": 623,
    "own</w>": 624,
    "some</w>": 625,
    "fac": 626,
    "were</w>": 627,
    "been</w>": 628,
    "man": 629,
    "mas</w>": 630,
    "sch": 631,
    "work</w>": 632,
    "ho": 633,
    "way</w>": 634,
    "friend</w>": 635,
    "how</w>": 636,
    "stu": 637,
    "there</w>": 638,
    "tw": 639,
    "2</w>": 640,
    "who</w>": 641,
    "is": 642,
    "thin": 643,
    "and": 644,
    "know</w>": 645,
    "ked</w>": 646,
    "more</w>": 647,
    "today</w>": 648,
    "good</w>": 649,
    "it's</w>": 650,
    "co": 651,
    "pl": 652,
    "fee": 653,
    "ks</w>": 654,
    "people</w>": 655,
    "ill</w>": 656,
    "ck</w>": 657,
    "ell": 658,
    "see</w>": 659,
    "bi": 660,
    "tu": 661,
    "ty</w>": 662,
    "ar</w>": 663,
    "ong</w>": 664,
    "ep": 665,
    "ound</w>": 666,
    "&quot;</w>": 667,
    "ry</w>": 668,
    "would</w>": 669,
    "...": 670,
    "mon": 671,
    "tur": 672,
    "fir": 673,
    "thou": 674,
    "cause</w>": 675,
    "ning</w>": 676,
    "b</w>": 677,
    "du": 678,
    "lea": 679,
    "re</w>": 680,
    "other</w>": 681,
    "s,</w>": 682,
    "ous</w>": 683,
    "then</w>": 684,
    "after</w>": 685,
    "ys</w>": 686,
    "ster": 687,
    "!!</w>": 688,
    "mar": 689,
    "christmas</w>": 690,
    "hear": 691,
    "star": 692,
    "schoo": 693,
    "ssed</w>": 694,
    "home</w>": 695,
    "us</w>": 696,
    "rea": 697,
    "0</w>": 698,
    "ful</w>": 699,
    "ke": 700,
    "feel</w>": 701,
    "lu": 702,
    "than": 703,
    "really</w>": 704,
    "ie": 705,
    "night</w>": 706,
    "c</w>": 707,
    "\"</w>": 708,
    "gir": 709,
    "him</w>": 710,
    "’</w>": 711,
    "ation</w>": 712,
    "na</w>": 713,
    "fe</w>": 714,
    "ever": 715,
    "has</w>": 716,
    "fel": 717,
    "sur": 718,
    "their</w>": 719,
    "ve": 720,
    "3</w>": 721,
    "end</w>": 722,
    "so": 723,
    "pla": 724,
    "being</w>": 725,
    "only</w>": 726,
    "did</w>": 727,
    "dis": 728,
    "its</w>": 729,
    "t.</w>": 730,
    "ings</w>": 731,
    "end": 732,
    "new</w>": 733,
    "ru": 734,
    "tomorrow": 735,
    "im": 736,
    "feel": 737,
    "me.</w>": 738,
    "ff": 739,
    "think</w>": 740,
    "dy</w>": 741,
    "dn't</w>": 742,
    "ssi": 743,
    "because</w>": 744,
    "last</w>": 745,
    "felt</w>": 746,
    "can't</w>": 747,
    "ment</w>": 748,
    "first</w>": 749,
    "now": 750,
    "ing.</w>": 751,
    "(</w>": 752,
    "mb": 753,
    "afra": 754,
    "ely</w>": 755,
    "aga": 756,
    "could</w>": 757,
    "over</w>": 758,
    "ill": 759,
    "sed</w>": 760,
    "run": 761,
    "ard</w>": 762,
    "bro": 763,
    "ity</w>": 764,
    "ge</w>": 765,
    "ic</w>": 766,
    "d,</w>": 767,
    "na": 768,
    "come</w>": 769,
    "wat": 770,
    "ers</w>": 771,
    "make</w>": 772,
    "afraid</w>": 773,
    "pri": 774,
    "ton": 775,
    "ice</w>": 776,
    "col": 777,
    "even</w>": 778,
    "cla": 779,
    "into</w>": 780,
    "read": 781,
    "bl": 782,
    "why</w>": 783,
    "sle": 784,
    "sm": 785,
    "ser": 786,
    "tting</w>": 787,
    "ph": 788,
    "them</w>": 789,
    "oh</w>": 790,
    "ft</w>": 791,
    "off</w>": 792,
    "ents</w>": 793,
    "happy</w>": 794,
    "sta": 795,
    "man</w>": 796,
    "any": 797,
    "too</w>": 798,
    "every": 799,
    "whi": 800,
    "ce": 801,
    "au": 802,
    ":)</w>": 803,
    "`</w>": 804,
    "life</w>": 805,
    "year": 806,
    "fam": 807,
    "able</w>": 808,
    "much</w>": 809,
    "clo": 810,
    "des": 811,
    "rt</w>": 812,
    "ec": 813,
    "app": 814,
    "ved</w>": 815,
    "y,</w>": 816,
    "ated</w>": 817,
    "tra": 818,
    "son</w>": 819,
    "vo": 820,
    "cre": 821,
    "school</w>": 822,
    "ite</w>": 823,
    "x</w>": 824,
    "right</w>": 825,
    "pr": 826,
    "dd": 827,
    "ga": 828,
    "wal": 829,
    "ance</w>": 830,
    "dr": 831,
    "ile</w>": 832,
    "won": 833,
    "week": 834,
    "exc": 835,
    "want</w>": 836,
    "der</w>": 837,
    "up": 838,
    "today": 839,
    "'re</w>": 840,
    "hu": 841,
    "hou": 842,
    "self</w>": 843,
    "brea": 844,
    "off": 845,
    "1</w>": 846,
    "which</w>": 847,
    "ali": 848,
    "ence</w>": 849,
    "never</w>": 850,
    "most</w>": 851,
    "ant</w>": 852,
    "yes</w>": 853,
    "that": 854,
    "ext</w>": 855,
    "still</w>": 856,
    "seen</w>": 857,
    "che": 858,
    "5</w>": 859,
    "mom": 860,
    "eli": 861,
    "yester": 862,
    "mp": 863,
    "sin": 864,
    "ba": 865,
    "lit": 866,
    "oll": 867,
    "ine</w>": 868,
    "tri": 869,
    "ned</w>": 870,
    "than</w>": 871,
    "e,</w>": 872,
    "made</w>": 873,
    "fear</w>": 874,
    "ki": 875,
    "tal": 876,
    "thr": 877,
    "ble": 878,
    "tomorrow</w>": 879,
    "cer": 880,
    "!!!</w>": 881,
    "tle</w>": 882,
    "came</w>": 883,
    "tru": 884,
    "toni": 885,
    "it.</w>": 886,
    ":(</w>": 887,
    "ough</w>": 888,
    "ll": 889,
    "tre": 890,
    "ded</w>": 891,
    "said</w>": 892,
    "didn't</w>": 893,
    "....": 894,
    "4</w>": 895,
    "great</w>": 896,
    "befor": 897,
    "ack": 898,
    "ever</w>": 899,
    "spe": 900,
    "down</w>": 901,
    "yesterday</w>": 902,
    "ook</w>": 903,
    "getting</w>": 904,
    "mat": 905,
    "feeling</w>": 906,
    "ily</w>": 907,
    "having</w>": 908,
    "let</w>": 909,
    "im</w>": 910,
    "est": 911,
    "my": 912,
    "ace</w>": 913,
    "gra": 914,
    "told</w>": 915,
    "dn": 916,
    "cor": 917,
    "another</w>": 918,
    "well</w>": 919,
    "next</w>": 920,
    "work": 921,
    "cou": 922,
    "joy</w>": 923,
    "hour": 924,
    "et</w>": 925,
    "tim": 926,
    "shi": 927,
    "dri": 928,
    "ste": 929,
    "son": 930,
    "sto": 931,
    "gon": 932,
    "thought</w>": 933,
    "ken</w>": 934,
    "sorr": 935,
    "bir": 936,
    "excit": 937,
    "any</w>": 938,
    "ding</w>": 939,
    "someone</w>": 940,
    "before</w>": 941,
    "coming</w>": 942,
    "take</w>": 943,
    "girl": 944,
    "hel": 945,
    "where</w>": 946,
    "ened</w>": 947,
    "ster</w>": 948,
    "sit": 949,
    "ching</w>": 950,
    "ple": 951,
    "kes</w>": 952,
    "face</w>": 953,
    "chil": 954,
    "aw": 955,
    "days</w>": 956,
    "hate</w>": 957,
    "long</w>": 958,
    "two</w>": 959,
    "her": 960,
    "es.</w>": 961,
    "ut": 962,
    "gg": 963,
    "z</w>": 964,
    "ble</w>": 965,
    "sad</w>": 966,
    "bet": 967,
    "look</w>": 968,
    "s!</w>": 969,
    "een</w>": 970,
    "sho": 971,
    "something</w>": 972,
    "mother</w>": 973,
    "with": 974,
    "ves</w>": 975,
    "ready</w>": 976,
    "#le": 977,
    "fun": 978,
    "sic": 979,
    "ways</w>": 980,
    "friends</w>": 981,
    "ans</w>": 982,
    "found</w>": 983,
    "say</w>": 984,
    "best</w>": 985,
    "win": 986,
    "pi": 987,
    "bab": 988,
    "left</w>": 989,
    "tomorrow,</w>": 990,
    "old</w>": 991,
    "hop": 992,
    "should</w>": 993,
    "year</w>": 994,
    "find</w>": 995,
    "need</w>": 996,
    "les</w>": 997,
    "family</w>": 998,
    "god</w>": 999,
    "here</w>": 1000,
    "morning</w>": 1001,
    "twee": 1002,
    "out": 1003,
    "things</w>": 1004,
    "foll": 1005,
    "away</w>": 1006,
    "ct</w>": 1007,
    "cha": 1008,
    "night": 1009,
    "m.</w>": 1010,
    "str": 1011,
    "little</w>": 1012,
    "bel": 1013,
    "la</w>": 1014,
    "cont": 1015,
    "ep</w>": 1016,
    "lt": 1017,
    "rev": 1018,
    "ct": 1019,
    "pres": 1020,
    "went</w>": 1021,
    "shed</w>": 1022,
    "lat": 1023,
    "gonna</w>": 1024,
    "ing,</w>": 1025,
    "always</w>": 1026,
    "cr": 1027,
    "ure</w>": 1028,
    "uni": 1029,
    "....</w>": 1030,
    "saw</w>": 1031,
    "memb": 1032,
    "give</w>": 1033,
    "est</w>": 1034,
    "bar": 1035,
    "gn": 1036,
    "car</w>": 1037,
    "ose</w>": 1038,
    "lol</w>": 1039,
    "own": 1040,
    "over": 1041,
    "stor": 1042,
    "again": 1043,
    "e's</w>": 1044,
    "exam": 1045,
    "twit": 1046,
    "kin": 1047,
    "every</w>": 1048,
    "por": 1049,
    "may</w>": 1050,
    "side</w>": 1051,
    "put</w>": 1052,
    "ten": 1053,
    "wait</w>": 1054,
    "cra": 1055,
    "week</w>": 1056,
    "pic": 1057,
    "ese</w>": 1058,
    "ed": 1059,
    "thank": 1060,
    "i've</w>": 1061,
    "tions</w>": 1062,
    "eep</w>": 1063,
    "ta</w>": 1064,
    "ber": 1065,
    "je</w>": 1066,
    "sha": 1067,
    "fre": 1068,
    "house</w>": 1069,
    "bad</w>": 1070,
    "ening</w>": 1071,
    "til</w>": 1072,
    "eng": 1073,
    "sing</w>": 1074,
    "boy": 1075,
    "see": 1076,
    "deli": 1077,
    "ses</w>": 1078,
    "'</w>": 1079,
    "ul": 1080,
    "dre": 1081,
    "ach": 1082,
    "coun": 1083,
    "ah</w>": 1084,
    "fl": 1085,
    "sd": 1086,
    "rela": 1087,
    "ary</w>": 1088,
    "miss</w>": 1089,
    "dy": 1090,
    "while</w>": 1091,
    "angry</w>": 1092,
    "birth": 1093,
    "ating</w>": 1094,
    "girl</w>": 1095,
    "@j": 1096,
    "friend": 1097,
    "per</w>": 1098,
    "under": 1099,
    "ed.</w>": 1100,
    "room</w>": 1101,
    "aa": 1102,
    "again</w>": 1103,
    "many</w>": 1104,
    "age</w>": 1105,
    "scar": 1106,
    "lon": 1107,
    "bed</w>": 1108,
    "hours</w>": 1109,
    "ten</w>": 1110,
    "goo": 1111,
    "wisd": 1112,
    "har": 1113,
    "ps</w>": 1114,
    "wri": 1115,
    "father</w>": 1116,
    "i'll</w>": 1117,
    "moment</w>": 1118,
    "person</w>": 1119,
    "expe": 1120,
    "led</w>": 1121,
    "inter": 1122,
    "@k": 1123,
    "cho": 1124,
    "sorry</w>": 1125,
    "cri": 1126,
    "ssion</w>": 1127,
    "giving</w>": 1128,
    "t,</w>": 1129,
    "hh": 1130,
    "war": 1131,
    "hal": 1132,
    "&lt": 1133,
    "mm": 1134,
    "ugh": 1135,
    "times</w>": 1136,
    "ha</w>": 1137,
    "yed</w>": 1138,
    "comm": 1139,
    "haha": 1140,
    "enc": 1141,
    "mee": 1142,
    "dea": 1143,
    "surpri": 1144,
    "through</w>": 1145,
    "ach</w>": 1146,
    "hope</w>": 1147,
    "thre": 1148,
    "list": 1149,
    "parents</w>": 1150,
    "ven": 1151,
    "looking</w>": 1152,
    "watching</w>": 1153,
    "__": 1154,
    "tell</w>": 1155,
    "met</w>": 1156,
    "cle": 1157,
    "such</w>": 1158,
    "ty": 1159,
    "/</w>": 1160,
    "class</w>": 1161,
    "sleep</w>": 1162,
    "new": 1163,
    "ous": 1164,
    "wait": 1165,
    "home": 1166,
    "that's</w>": 1167,
    "foo": 1168,
    "years</w>": 1169,
    "day.</w>": 1170,
    "sion</w>": 1171,
    "rememb": 1172,
    "ann": 1173,
    "il</w>": 1174,
    "colle": 1175,
    "er.</w>": 1176,
    "”</w>": 1177,
    "call": 1178,
    "@rev": 1179,
    "know": 1180,
    "sol": 1181,
    "hour</w>": 1182,
    "ssing</w>": 1183,
    "@revrun": 1184,
    "@revrunwisd": 1185,
    "anger</w>": 1186,
    "without</w>": 1187,
    "lor": 1188,
    "pping</w>": 1189,
    "you're</w>": 1190,
    "around</w>": 1191,
    "life": 1192,
    "live</w>": 1193,
    "als</w>": 1194,
    "sk": 1195,
    "tive</w>": 1196,
    "those</w>": 1197,
    "heard</w>": 1198,
    "dar": 1199,
    "peri": 1200,
    "beg": 1201,
    "ey</w>": 1202,
    "early</w>": 1203,
    "ess": 1204,
    "who": 1205,
    "sun": 1206,
    "7</w>": 1207,
    "body</w>": 1208,
    "let": 1209,
    "ur</w>": 1210,
    "v</w>": 1211,
    "8</w>": 1212,
    "lost</w>": 1213,
    "ama": 1214,
    "&lt;": 1215,
    "jec": 1216,
    "wanted</w>": 1217,
    "sw": 1218,
    "reali": 1219,
    "close</w>": 1220,
    "ja": 1221,
    "nothing</w>": 1222,
    "ason</w>": 1223,
    "world</w>": 1224,
    "#less": 1225,
    "bri": 1226,
    "et": 1227,
    "big</w>": 1228,
    "actu": 1229,
    "until</w>": 1230,
    "ass</w>": 1231,
    "e!</w>": 1232,
    "cour": 1233,
    "fini": 1234,
    "these</w>": 1235,
    "sen": 1236,
    "sure</w>": 1237,
    "6</w>": 1238,
    "tic": 1239,
    "watch</w>": 1240,
    "phone</w>": 1241,
    "oul": 1242,
    "head</w>": 1243,
    "try</w>": 1244,
    "done</w>": 1245,
    "though</w>": 1246,
    "birthday</w>": 1247,
    "start</w>": 1248,
    "show": 1249,
    "stop</w>": 1250,
    "stud": 1251,
    "ious</w>": 1252,
    "dam": 1253,
    "ner</w>": 1254,
    "also</w>": 1255,
    "makes</w>": 1256,
    "ful": 1257,
    "ms</w>": 1258,
    "mom</w>": 1259,
    "ze</w>": 1260,
    "few</w>": 1261,
    "same</w>": 1262,
    "que</w>": 1263,
    "anc": 1264,
    "dur": 1265,
    "ement</w>": 1266,
    "stre": 1267,
    "boo": 1268,
    "sleep": 1269,
    "int": 1270,
    "tonight</w>": 1271,
    "sc": 1272,
    "twitter</w>": 1273,
    "doing</w>": 1274,
    "shit</w>": 1275,
    "wom": 1276,
    "bor": 1277,
    "not": 1278,
    "ball</w>": 1279,
    "tonight": 1280,
    "finally</w>": 1281,
    "diff": 1282,
    "lot</w>": 1283,
    "00": 1284,
    "supp": 1285,
    "y!</w>": 1286,
    "din": 1287,
    "univer": 1288,
    "ward</w>": 1289,
    "school": 1290,
    "making</w>": 1291,
    "deci": 1292,
    "sy": 1293,
    "med</w>": 1294,
    "cep": 1295,
    "alone</w>": 1296,
    "han": 1297,
    "guess</w>": 1298,
    "coo": 1299,
    "ka": 1300,
    "call</w>": 1301,
    "keep</w>": 1302,
    "hor": 1303,
    "va": 1304,
    "cking</w>": 1305,
    "bit": 1306,
    "grand": 1307,
    "'ve</w>": 1308,
    "ent.</w>": 1309,
    "cc": 1310,
    "does</w>": 1311,
    "turn</w>": 1312,
    "ture</w>": 1313,
    "ner": 1314,
    "mus": 1315,
    "during</w>": 1316,
    "!!!!": 1317,
    "chang": 1318,
    "me,</w>": 1319,
    "expec": 1320,
    "pan": 1321,
    "tor": 1322,
    "pped</w>": 1323,
    "excited</w>": 1324,
    "on.</w>": 1325,
    "seem": 1326,
    "fail": 1327,
    "att": 1328,
    "spi": 1329,
    "looked</w>": 1330,
    "party</w>": 1331,
    "better</w>": 1332,
    "hur": 1333,
    "zz": 1334,
    "actually</w>": 1335,
    "@the": 1336,
    "gen": 1337,
    "myself</w>": 1338,
    "fear": 1339,
    "den": 1340,
    "se.</w>": 1341,
    "red</w>": 1342,
    "won't</w>": 1343,
    "plea": 1344,
    "@m": 1345,
    "thanks": 1346,
    "got": 1347,
    "proble": 1348,
    "thank</w>": 1349,
    "help</w>": 1350,
    "ey": 1351,
    "ef": 1352,
    "read</w>": 1353,
    "beau": 1354,
    "does": 1355,
    "underst": 1356,
    "&</w>": 1357,
    "brother</w>": 1358,
    "ased</w>": 1359,
    "follow": 1360,
    "--</w>": 1361,
    "since</w>": 1362,
    "passed</w>": 1363,
    "morn": 1364,
    "talk</w>": 1365,
    "wish</w>": 1366,
    "belie": 1367,
    "d!</w>": 1368,
    "mag": 1369,
    "leave</w>": 1370,
    "might</w>": 1371,
    "already</w>": 1372,
    "nee": 1373,
    "break": 1374,
    "lear": 1375,
    "youn": 1376,
    "ob": 1377,
    "holi": 1378,
    "da</w>": 1379,
    "show</w>": 1380,
    "movi": 1381,
    "working</w>": 1382,
    "wr": 1383,
    "ide": 1384,
    "gla": 1385,
    "lin": 1386,
    "tion.</w>": 1387,
    "full</w>": 1388,
    "today.</w>": 1389,
    "char": 1390,
    "zing</w>": 1391,
    "nice</w>": 1392,
    "ven</w>": 1393,
    "cei": 1394,
    "sister</w>": 1395,
    "sing": 1396,
    "trying</w>": 1397,
    "ak": 1398,
    "sul": 1399,
    "ele": 1400,
    "back": 1401,
    "ly": 1402,
    "un</w>": 1403,
    "10</w>": 1404,
    "el</w>": 1405,
    "down": 1406,
    "too": 1407,
    "expre": 1408,
    "ered</w>": 1409,
    "ik</w>": 1410,
    "dra": 1411,
    "ending</w>": 1412,
    "secon": 1413,
    "weekend</w>": 1414,
    "ma</w>": 1415,
    "depre": 1416,
    "tt": 1417,
    "head": 1418,
    "music</w>": 1419,
    "heart</w>": 1420,
    "must</w>": 1421,
    "tell": 1422,
    "bur": 1423,
    "ture": 1424,
    "part</w>": 1425,
    "other": 1426,
    "scared</w>": 1427,
    "half</w>": 1428,
    "person": 1429,
    "fuck</w>": 1430,
    "ici": 1431,
    "took</w>": 1432,
    "om:</w>": 1433,
    "concer": 1434,
    "ons</w>": 1435,
    "thanks</w>": 1436,
    "almost</w>": 1437,
    "terri": 1438,
    "ently</w>": 1439,
    "gri": 1440,
    "@revrunwisdom:</w>": 1441,
    "pret": 1442,
    "van</w>": 1443,
    "'ll</w>": 1444,
    "zed</w>": 1445,
    "less</w>": 1446,
    "month": 1447,
    "plan": 1448,
    "dont</w>": 1449,
    "nu": 1450,
    "till</w>": 1451,
    "ling</w>": 1452,
    "money</w>": 1453,
    "once</w>": 1454,
    "int</w>": 1455,
    "ness</w>": 1456,
    "started</w>": 1457,
    "hard</w>": 1458,
    "remember</w>": 1459,
    "believe</w>": 1460,
    "hear</w>": 1461,
    "wo": 1462,
    "cial</w>": 1463,
    "boyfriend</w>": 1464,
    "ny</w>": 1465,
    "ort</w>": 1466,
    "poli": 1467,
    "bli": 1468,
    "childr": 1469,
    "wonder": 1470,
    "taking</w>": 1471,
    "ship</w>": 1472,
    "#x": 1473,
    "stra": 1474,
    "room": 1475,
    "black</w>": 1476,
    "yet</w>": 1477,
    "place</w>": 1478,
    "break</w>": 1479,
    "play</w>": 1480,
    "je": 1481,
    "awa": 1482,
    "whole</w>": 1483,
    "ger</w>": 1484,
    "sit</w>": 1485,
    "lar": 1486,
    "ies</w>": 1487,
    "ought</w>": 1488,
    "surprise</w>": 1489,
    "gt": 1490,
    "time.</w>": 1491,
    "recei": 1492,
    "gar": 1493,
    "late</w>": 1494,
    "fied</w>": 1495,
    "des</w>": 1496,
    "friday</w>": 1497,
    "real</w>": 1498,
    "playing</w>": 1499,
    "jes": 1500,
    "fron": 1501,
    "game</w>": 1502,
    "tic</w>": 1503,
    "wanna</w>": 1504,
    "everyone</w>": 1505,
    "shop": 1506,
    "@s": 1507,
    "gam": 1508,
    "ched</w>": 1509,
    "ei": 1510,
    "vel": 1511,
    ".&quot;</w>": 1512,
    "eyes</w>": 1513,
    "by": 1514,
    "please</w>": 1515,
    "&#x": 1516,
    "&#xa": 1517,
    "great": 1518,
    "class": 1519,
    "comp": 1520,
    "ah": 1521,
    "mine</w>": 1522,
    "may": 1523,
    "cro": 1524,
    "asked</w>": 1525,
    "beauti": 1526,
    "fright": 1527,
    "hin": 1528,
    "&#xa;": 1529,
    "pe</w>": 1530,
    "died</w>": 1531,
    "die</w>": 1532,
    "turned</w>": 1533,
    "accep": 1534,
    "k.</w>": 1535,
    "ant": 1536,
    "death</w>": 1537,
    "uk</w>": 1538,
    "en.</w>": 1539,
    "es,</w>": 1540,
    "fucking</w>": 1541,
    "cal": 1542,
    "sal": 1543,
    "19": 1544,
    "yeah</w>": 1545,
    "test</w>": 1546,
    "ously</w>": 1547,
    "haha</w>": 1548,
    "ction</w>": 1549,
    "&gt": 1550,
    "dan": 1551,
    "lov": 1552,
    "le.</w>": 1553,
    ").</w>": 1554,
    "waiting</w>": 1555,
    "mad</w>": 1556,
    "dad</w>": 1557,
    "body": 1558,
    "illed</w>": 1559,
    "ef</w>": 1560,
    "fo": 1561,
    "tweet</w>": 1562,
    "don</w>": 1563,
    "bra": 1564,
    "ok</w>": 1565,
    "quite</w>": 1566,
    "self": 1567,
    "nic": 1568,
    "ban": 1569,
    "drin": 1570,
    "minut": 1571,
    "cid": 1572,
    "experi": 1573,
    "under</w>": 1574,
    "tiv": 1575,
    "used</w>": 1576,
    "seeing</w>": 1577,
    "inc": 1578,
    "ended</w>": 1579,
    "set</w>": 1580,
    "baby</w>": 1581,
    "happin": 1582,
    "sli": 1583,
    "certa": 1584,
    "horr": 1585,
    "win</w>": 1586,
    "act</w>": 1587,
    "dness</w>": 1588,
    "tomorrow.</w>": 1589,
    "follow</w>": 1590,
    "anything</w>": 1591,
    "ters</w>": 1592,
    "high</w>": 1593,
    "ins</w>": 1594,
    "cur": 1595,
    "j</w>": 1596,
    "called</w>": 1597,
    "anx": 1598,
    "quie": 1599,
    "stri": 1600,
    "doesn't</w>": 1601,
    "against</w>": 1602,
    "walk</w>": 1603,
    "book</w>": 1604,
    "gone</w>": 1605,
    "atur": 1606,
    "study</w>": 1607,
    "dro": 1608,
    "children</w>": 1609,
    "use</w>": 1610,
    "log": 1611,
    "walking</w>": 1612,
    "everything</w>": 1613,
    "three</w>": 1614,
    "ghts</w>": 1615,
    "prom": 1616,
    "well": 1617,
    "hun": 1618,
    "ff</w>": 1619,
    "thing": 1620,
    "nog</w>": 1621,
    ":d</w>": 1622,
    "pen": 1623,
    "him": 1624,
    "cked</w>": 1625,
    "fai": 1626,
    "paper</w>": 1627,
    "real": 1628,
    "hea": 1629,
    "thanksgiving</w>": 1630,
    "ears</w>": 1631,
    "pretty</w>": 1632,
    "boy</w>": 1633,
    "food</w>": 1634,
    "comes</w>": 1635,
    "one.</w>": 1636,
    "men": 1637,
    "st.</w>": 1638,
    "knew</w>": 1639,
    "ining</w>": 1640,
    "tball</w>": 1641,
    "wil": 1642,
    "what": 1643,
    "love": 1644,
    "pow": 1645,
    "tun": 1646,
    "12</w>": 1647,
    "scre": 1648,
    "how": 1649,
    "sudd": 1650,
    "comple": 1651,
    "isn't</w>": 1652,
    "vor": 1653,
    "pleased</w>": 1654,
    "dly</w>": 1655,
    "ried</w>": 1656,
    "soun": 1657,
    "shing</w>": 1658,
    "san": 1659,
    "friend.</w>": 1660,
    "20": 1661,
    "became</w>": 1662,
    "10": 1663,
    "you.</w>": 1664,
    "toge": 1665,
    "sti": 1666,
    "desp": 1667,
    "zy</w>": 1668,
    "ined</w>": 1669,
    "angu": 1670,
    "beautiful</w>": 1671,
    "hon": 1672,
    "teach": 1673,
    "heart": 1674,
    "guy</w>": 1675,
    "mil": 1676,
    "vous</w>": 1677,
    "horror</w>": 1678,
    "job</w>": 1679,
    "open</w>": 1680,
    "behin": 1681,
    "after": 1682,
    "exam</w>": 1683,
    "ish</w>": 1684,
    "lish</w>": 1685,
    "light</w>": 1686,
    "gotta</w>": 1687,
    "sitting</w>": 1688,
    "emo": 1689,
    "ber</w>": 1690,
    "ger": 1691,
    "indi": 1692,
    "shopping</w>": 1693,
    "fun</w>": 1694,
    "vie": 1695,
    "was": 1696,
    "cover": 1697,
    "@thebody": 1698,
    "9</w>": 1699,
    "'d</w>": 1700,
    "line</w>": 1701,
    "??</w>": 1702,
    "ick</w>": 1703,
    "smile</w>": 1704,
    "pra": 1705,
    "@thebodyshop": 1706,
    "fil": 1707,
    "gave</w>": 1708,
    "sts</w>": 1709,
    "gs</w>": 1710,
    "mes": 1711,
    "good": 1712,
    "resul": 1713,
    "anno": 1714,
    "inv": 1715,
    "part": 1716,
    "'m</w>": 1717,
    "prac": 1718,
    "thinking</w>": 1719,
    "sometimes</w>": 1720,
    "dou": 1721,
    "@thebodyshopuk</w>": 1722,
    "excitement</w>": 1723,
    "christma": 1724,
    "ue</w>": 1725,
    "rest</w>": 1726,
    "lou": 1727,
    "unch</w>": 1728,
    "ass": 1729,
    "one": 1730,
    "publi": 1731,
    "quest": 1732,
    "bas": 1733,
    "accid": 1734,
    "bus</w>": 1735,
    "laugh": 1736,
    "nor": 1737,
    "bad": 1738,
    "sever": 1739,
    "become</w>": 1740,
    "ya": 1741,
    "?!</w>": 1742,
    "cat": 1743,
    "medi": 1744,
    "nt</w>": 1745,
    "smi": 1746,
    "ens</w>": 1747,
    "tried</w>": 1748,
    "ise</w>": 1749,
    "miser": 1750,
    "ced</w>": 1751,
    "fact</w>": 1752,
    "night.</w>": 1753,
    "cent": 1754,
    "band</w>": 1755,
    "ghted</w>": 1756,
    "front</w>": 1757,
    "dan</w>": 1758,
    "missed</w>": 1759,
    "both</w>": 1760,
    "kn": 1761,
    "high": 1762,
    "relation": 1763,
    "child</w>": 1764,
    "behind</w>": 1765,
    "~</w>": 1766,
    "rather</w>": 1767,
    "sou": 1768,
    "g.</w>": 1769,
    "land</w>": 1770,
    "&amp;": 1771,
    "there's</w>": 1772,
    "enly</w>": 1773,
    "30</w>": 1774,
    "voor</w>": 1775,
    "sub": 1776,
    "now.</w>": 1777,
    "mind</w>": 1778,
    "differ": 1779,
    "th.</w>": 1780,
    "shar": 1781,
    "work.</w>": 1782,
    "sted</w>": 1783,
    "ww": 1784,
    "contro": 1785,
    "change</w>": 1786,
    "ry": 1787,
    "hair</w>": 1788,
    "haven": 1789,
    "news</w>": 1790,
    "delighted</w>": 1791,
    "#less”</w>": 1792,
    "offici": 1793,
    "ment": 1794,
    "each</w>": 1795,
    "them": 1796,
    "mer": 1797,
    "enti": 1798,
    "vic": 1799,
    "id": 1800,
    "frightened</w>": 1801,
    "final</w>": 1802,
    "ors</w>": 1803,
    "buy</w>": 1804,
    "they": 1805,
    "day,</w>": 1806,
    "minutes</w>": 1807,
    "sick</w>": 1808,
    "mal": 1809,
    "door</w>": 1810,
    "lord</w>": 1811,
    "nam": 1812,
    "later</w>": 1813,
    "due</w>": 1814,
    "looks</w>": 1815,
    "bit</w>": 1816,
    "ya</w>": 1817,
    "van": 1818,
    "cks</w>": 1819,
    "says</w>": 1820,
    "ton</w>": 1821,
    "succ": 1822,
    "present</w>": 1823,
    "care</w>": 1824,
    "!!!!</w>": 1825,
    "exas": 1826,
    "hand": 1827,
    "&lt;3</w>": 1828,
    "cant</w>": 1829,
    "furi": 1830,
    "your": 1831,
    "s...</w>": 1832,
    "oooo": 1833,
    "sar": 1834,
    "homework</w>": 1835,
    "disa": 1836,
    "haven't</w>": 1837,
    "quiet</w>": 1838,
    "lan": 1839,
    "nervous</w>": 1840,
    "ties</w>": 1841,
    "pt</w>": 1842,
    "ast": 1843,
    "tree</w>": 1844,
    "true</w>": 1845,
    "seemed</w>": 1846,
    "ctor</w>": 1847,
    "season</w>": 1848,
    "sil": 1849,
    "peace</w>": 1850,
    "fan": 1851,
    "het</w>": 1852,
    "out.</w>": 1853,
    "ing!</w>": 1854,
    "dec": 1855,
    "kla": 1856,
    "a.</w>": 1857,
    "broken</w>": 1858,
    "driving</w>": 1859,
    "english</w>": 1860,
    "questi": 1861,
    "ond": 1862,
    "ised</w>": 1863,
    "oc": 1864,
    "pas</w>": 1865,
    "girlfriend</w>": 1866,
    "exasper": 1867,
    "kind</w>": 1868,
    "dinner</w>": 1869,
    "talking</w>": 1870,
    "zi": 1871,
    "consi": 1872,
    "bring</w>": 1873,
    "happened</w>": 1874,
    "wrong</w>": 1875,
    "amazing</w>": 1876,
    "famil": 1877,
    "imag": 1878,
    "ly.</w>": 1879,
    "del": 1880,
    "sity</w>": 1881,
    "finished</w>": 1882,
    "movie</w>": 1883,
    "fer": 1884,
    "just": 1885,
    "ask</w>": 1886,
    "idea</w>": 1887,
    "ago</w>": 1888,
    "time": 1889,
    "voice</w>": 1890,
    "examin": 1891,
    "amer": 1892,
    "#i": 1893,
    "word</w>": 1894,
    "cold</w>": 1895,
    "plac": 1896,
    "ch.</w>": 1897,
    "it,</w>": 1898,
    "suddenly</w>": 1899,
    "damn</w>": 1900,
    "spiri": 1901,
    "second</w>": 1902,
    "drive</w>": 1903,
    "stay</w>": 1904,
    "joh": 1905,
    "leaving</w>": 1906,
    "enough</w>": 1907,
    "horri": 1908,
    "reason</w>": 1909,
    "ess.</w>": 1910,
    "ak</w>": 1911,
    "ards</w>": 1912,
    "happiness</w>": 1913,
    "he's</w>": 1914,
    "heal": 1915,
    "port": 1916,
    "up.</w>": 1917,
    "dog</w>": 1918,
    "broke</w>": 1919,
    "al.</w>": 1920,
    "res": 1921,
    "sl": 1922,
    "tow": 1923,
    "grou": 1924,
    "er,</w>": 1925,
    "in.</w>": 1926,
    "course</w>": 1927,
    "weeks</w>": 1928,
    "least</w>": 1929,
    "kids</w>": 1930,
    "gets</w>": 1931,
    "wonderful</w>": 1932,
    "rec": 1933,
    "meet</w>": 1934,
    "depressed</w>": 1935,
    "che</w>": 1936,
    "ire</w>": 1937,
    "tou": 1938,
    "gan": 1939,
    "coul": 1940,
    "dnt</w>": 1941,
    "op</w>": 1942,
    "cele": 1943,
    "run</w>": 1944,
    "ker</w>": 1945,
    "girls</w>": 1946,
    "worl": 1947,
    "gn</w>": 1948,
    "present": 1949,
    "ugh</w>": 1950,
    "embar": 1951,
    "young</w>": 1952,
    "top</w>": 1953,
    "ben": 1954,
    "anyone</w>": 1955,
    "woman</w>": 1956,
    "swee": 1957,
    "glad</w>": 1958,
    "university</w>": 1959,
    "chi": 1960,
    "story</w>": 1961,
    "joy": 1962,
    "i'd</w>": 1963,
    "months</w>": 1964,
    "hus": 1965,
    "listening</w>": 1966,
    "seri": 1967,
    "lec": 1968,
    "inste": 1969,
    "telling</w>": 1970,
    "finding</w>": 1971,
    "maybe</w>": 1972,
    "several</w>": 1973,
    "ther.</w>": 1974,
    "tice</w>": 1975,
    "cul": 1976,
    "j'": 1977,
    "bot": 1978,
    "day!</w>": 1979,
    ".\"</w>": 1980,
    "temp": 1981,
    "hot</w>": 1982,
    "fect</w>": 1983,
    "absol": 1984,
    "spend</w>": 1985,
    "emp": 1986,
    "tv</w>": 1987,
    "meeting</w>": 1988,
    "men</w>": 1989,
    "wake</w>": 1990,
    "but": 1991,
    "realized</w>": 1992,
    "ping</w>": 1993,
    "fli": 1994,
    "tional</w>": 1995,
    "ori": 1996,
    "team</w>": 1997,
    "=</w>": 1998,
    "mit": 1999,
    "hol": 2000,
    "#love</w>": 2001,
    "whom</w>": 2002,
    "face": 2003,
    "k,</w>": 2004,
    "form</w>": 2005,
    "situ": 2006,
    "you've</w>": 2007,
    "possi": 2008,
    "#f": 2009,
    "miserable</w>": 2010,
    "xmas</w>": 2011,
    "paper": 2012,
    "forward</w>": 2013,
    "ones</w>": 2014,
    "probab": 2015,
    "write</w>": 2016,
    "state</w>": 2017,
    "mid": 2018,
    "yy": 2019,
    "failed</w>": 2020,
    "embarra": 2021,
    "en,</w>": 2022,
    "special</w>": 2023,
    "name</w>": 2024,
    "qui": 2025,
    "bs</w>": 2026,
    "city</w>": 2027,
    "died.</w>": 2028,
    "parti": 2029,
    "eat</w>": 2030,
    "opp": 2031,
    "fuck": 2032,
    "fell</w>": 2033,
    "air": 2034,
    "chin": 2035,
    "ter.</w>": 2036,
    "cli": 2037,
    "cof": 2038,
    "anxious</w>": 2039,
    "tot": 2040,
    "woul": 2041,
    "usu": 2042,
    "le,</w>": 2043,
    "betwe": 2044,
    "11</w>": 2045,
    "fic": 2046,
    "delight</w>": 2047,
    "pain</w>": 2048,
    "12": 2049,
    "dismay</w>": 2050,
    "living</w>": 2051,
    "tor</w>": 2052,
    "thi": 2053,
    "received</w>": 2054,
    "understand</w>": 2055,
    "kit": 2056,
    "decided</w>": 2057,
    "probably</w>": 2058,
    "stand": 2059,
    "_-</w>": 2060,
    ":-": 2061,
    "we're</w>": 2062,
    "ign": 2063,
    "eating</w>": 2064,
    "pour</w>": 2065,
    "p.</w>": 2066,
    "radi": 2067,
    "bout</w>": 2068,
    "ate": 2069,
    "reli": 2070,
    "hosp": 2071,
    "esom": 2072,
    "brings</w>": 2073,
    "ste</w>": 2074,
    "water</w>": 2075,
    "#less</w>": 2076,
    "ea": 2077,
    "sy</w>": 2078,
    "what's</w>": 2079,
    "&gt;": 2080,
    "sting</w>": 2081,
    "tly</w>": 2082,
    "song</w>": 2083,
    "between</w>": 2084,
    "wife</w>": 2085,
    "kin</w>": 2086,
    "mr</w>": 2087,
    "ond</w>": 2088,
    "play": 2089,
    "gl": 2090,
    "flo": 2091,
    "mr": 2092,
    "lose</w>": 2093,
    "fall": 2094,
    "pho": 2095,
    "mean</w>": 2096,
    "ley</w>": 2097,
    "owing</w>": 2098,
    "tonight.</w>": 2099,
    "trip</w>": 2100,
    "ged</w>": 2101,
    "dark</w>": 2102,
    "um</w>": 2103,
    "less": 2104,
    "ute</w>": 2105,
    "hospit": 2106,
    "appar": 2107,
    "“@": 2108,
    "summ": 2109,
    "dered</w>": 2110,
    "far": 2111,
    "spo": 2112,
    "tired</w>": 2113,
    "home.</w>": 2114,
    "saying</w>": 2115,
    ";)</w>": 2116,
    "oh": 2117,
    "answ": 2118,
    "pid</w>": 2119,
    "holiday</w>": 2120,
    "#l": 2121,
    "use": 2122,
    "hit</w>": 2123,
    "hell": 2124,
    "wasn't</w>": 2125,
    "expected</w>": 2126,
    "fall</w>": 2127,
    "prof": 2128,
    ":/</w>": 2129,
    "refu": 2130,
    "cially</w>": 2131,
    "kill": 2132,
    "tears</w>": 2133,
    "ows</w>": 2134,
    "him.</w>": 2135,
    "school.</w>": 2136,
    "pur": 2137,
    "simp": 2138,
    "town</w>": 2139,
    "vid</w>": 2140,
    "disapp": 2141,
    "lol": 2142,
    "given</w>": 2143,
    "ut</w>": 2144,
    "bb": 2145,
    "cal</w>": 2146,
    "val": 2147,
    "reading</w>": 2148,
    "ult</w>": 2149,
    "y_": 2150,
    "road</w>": 2151,
    "writing</w>": 2152,
    "woke</w>": 2153,
    "contin": 2154,
    "t!</w>": 2155,
    "ple</w>": 2156,
    "forgot</w>": 2157,
    "means</w>": 2158,
    "sa</w>": 2159,
    "on,</w>": 2160,
    "guys</w>": 2161,
    "gnant</w>": 2162,
    "earing</w>": 2163,
    "ore</w>": 2164,
    "bye</w>": 2165,
    "soon</w>": 2166,
    "stupid</w>": 2167,
    "together</w>": 2168,
    "suff": 2169,
    "outside</w>": 2170,
    "ight</w>": 2171,
    "dat</w>": 2172,
    "resp": 2173,
    "%</w>": 2174,
    "ne</w>": 2175,
    "ird</w>": 2176,
    "filled</w>": 2177,
    "life.</w>": 2178,
    "phy": 2179,
    "stom": 2180,
    "alar": 2181,
    "compu": 2182,
    "@a": 2183,
    "enjoy</w>": 2184,
    "ppl</w>": 2185,
    "adv": 2186,
    "missing</w>": 2187,
    "awesom": 2188,
    "small</w>": 2189,
    "month</w>": 2190,
    "mood</w>": 2191,
    "forget</w>": 2192,
    "ation": 2193,
    ":'": 2194,
    "often</w>": 2195,
    "fully</w>": 2196,
    "kee": 2197,
    "hurt</w>": 2198,
    "running</w>": 2199,
    "inst": 2200,
    "ine": 2201,
    "mou": 2202,
    "clu": 2203,
    "ats</w>": 2204,
    "satur": 2205,
    "ations</w>": 2206,
    "sci": 2207,
    "daugh": 2208,
    "grief</w>": 2209,
    "espe": 2210,
    "certain</w>": 2211,
    "cht</w>": 2212,
    "taken</w>": 2213,
    "evening</w>": 2214,
    "ick": 2215,
    "projec": 2216,
    "ns</w>": 2217,
    "crazy</w>": 2218,
    "ge.</w>": 2219,
    "bought</w>": 2220,
    "dee": 2221,
    "hand</w>": 2222,
    "gge": 2223,
    "spent</w>": 2224,
    "ai</w>": 2225,
    "20</w>": 2226,
    "port</w>": 2227,
    "awk": 2228,
    "ility</w>": 2229,
    "arri": 2230,
    "words</w>": 2231,
    "ept</w>": 2232,
    "ddle</w>": 2233,
    "zo": 2234,
    "fru": 2235,
    "wind": 2236,
    "kill</w>": 2237,
    "ke.</w>": 2238,
    "nei": 2239,
    "shoul": 2240,
    "pac": 2241,
    "jour": 2242,
    "group</w>": 2243,
    "sense</w>": 2244,
    "jn</w>": 2245,
    "&quot;@": 2246,
    "ately</w>": 2247,
    "free</w>": 2248,
    "deep</w>": 2249,
    "lead": 2250,
    "de.</w>": 2251,
    "lie</w>": 2252,
    "ama</w>": 2253,
    "instead</w>": 2254,
    "pie": 2255,
    "pay</w>": 2256,
    "gen</w>": 2257,
    "agre": 2258,
    "ball": 2259,
    "utely</w>": 2260,
    "ts": 2261,
    "pot": 2262,
    "despond": 2263,
    "shit": 2264,
    "concerned</w>": 2265,
    "happen</w>": 2266,
    "gy": 2267,
    "sounds</w>": 2268,
    "gover": 2269,
    "especially</w>": 2270,
    "morning.</w>": 2271,
    "jan": 2272,
    "diffic": 2273,
    "es!</w>": 2274,
    "swe": 2275,
    "*</w>": 2276,
    "fran": 2277,
    "pat": 2278,
    "fee</w>": 2279,
    "squ": 2280,
    "seems</w>": 2281,
    "teacher</w>": 2282,
    "titu": 2283,
    "jesus</w>": 2284,
    "control</w>": 2285,
    "stat": 2286,
    "eu": 2287,
    "football</w>": 2288,
    "mp</w>": 2289,
    "ny": 2290,
    "import": 2291,
    "wel": 2292,
    "oni": 2293,
    "terrible</w>": 2294,
    "sent</w>": 2295,
    "studying</w>": 2296,
    "visit</w>": 2297,
    "avo": 2298,
    "wea": 2299,
    "hoo": 2300,
    "-__": 2301,
    "himself</w>": 2302,
    "o.</w>": 2303,
    "listen</w>": 2304,
    "wat</w>": 2305,
    "nu</w>": 2306,
    "secre": 2307,
    "cut</w>": 2308,
    "near</w>": 2309,
    "college</w>": 2310,
    "else</w>": 2311,
    ".....</w>": 2312,
    "s.": 2313,
    "past</w>": 2314,
    "#less&quot;</w>": 2315,
    "favor": 2316,
    "ped</w>": 2317,
    "chocol": 2318,
    "decor": 2319,
    "you,</w>": 2320,
    "king": 2321,
    "evi": 2322,
    "dence</w>": 2323,
    "americ": 2324,
    "she's</w>": 2325,
    "mon</w>": 2326,
    "drun": 2327,
    "there": 2328,
    "à</w>": 2329,
    "far</w>": 2330,
    "problems</w>": 2331,
    "maj": 2332,
    "covered</w>": 2333,
    "thing.</w>": 2334,
    "letter</w>": 2335,
    "cam": 2336,
    "mate</w>": 2337,
    "ran": 2338,
    "dream": 2339,
    "spending</w>": 2340,
    "ches</w>": 2341,
    "den</w>": 2342,
    "ran</w>": 2343,
    "experience</w>": 2344,
    "worst</w>": 2345,
    "music": 2346,
    "ite": 2347,
    "them.</w>": 2348,
    "future</w>": 2349,
    "relationship</w>": 2350,
    "different</w>": 2351,
    "couldn't</w>": 2352,
    "absolutely</w>": 2353,
    "libr": 2354,
    "lled</w>": 2355,
    "today!</w>": 2356,
    "white</w>": 2357,
    "sadness</w>": 2358,
    "sear": 2359,
    "ney</w>": 2360,
    "s?</w>": 2361,
    "loved</w>": 2362,
    "oka": 2363,
    "@b": 2364,
    "break!</w>": 2365,
    "losing</w>": 2366,
    "ross</w>": 2367,
    "numb": 2368,
    "point</w>": 2369,
    "ts.</w>": 2370,
    "ong": 2371,
    "ency</w>": 2372,
    "(:</w>": 2373,
    "light": 2374,
    "ering</w>": 2375,
    "15</w>": 2376,
    "women</w>": 2377,
    "buil": 2378,
    "cross</w>": 2379,
    "again.</w>": 2380,
    "dear</w>": 2381,
    "god": 2382,
    "chance</w>": 2383,
    "rage</w>": 2384,
    "house": 2385,
    "s..</w>": 2386,
    "won</w>": 2387,
    "dance</w>": 2388,
    "feels</w>": 2389,
    "public</w>": 2390,
    "kar": 2391,
    "husband</w>": 2392,
    "pair</w>": 2393,
    "brother": 2394,
    "ils</w>": 2395,
    "vide": 2396,
    "right": 2397,
    "cry</w>": 2398,
    "logy</w>": 2399,
    "train</w>": 2400,
    "feelings</w>": 2401,
    "os</w>": 2402,
    "@d": 2403,
    "ve.</w>": 2404,
    "11": 2405,
    "bly</w>": 2406,
    "super</w>": 2407,
    "afterno": 2408,
    "coffee</w>": 2409,
    "tex": 2410,
    "physic": 2411,
    "mari": 2412,
    "owed</w>": 2413,
    "picture": 2414,
    "sister": 2415,
    "mc": 2416,
    "towards</w>": 2417,
    "tick": 2418,
    "mac": 2419,
    "worse</w>": 2420,
    "oper": 2421,
    "messa": 2422,
    "ure": 2423,
    "others</w>": 2424,
    "finish</w>": 2425,
    "swi": 2426,
    "expression</w>": 2427,
    "asle": 2428,
    "disquiet</w>": 2429,
    "separ": 2430,
    "fine</w>": 2431,
    "cru": 2432,
    "produ": 2433,
    "view</w>": 2434,
    "cas": 2435,
    "cted</w>": 2436,
    "ari": 2437,
    "country</w>": 2438,
    "situation</w>": 2439,
    "celebr": 2440,
    "annoy": 2441,
    "hell</w>": 2442,
    "ments</w>": 2443,
    "tro": 2444,
    "although</w>": 2445,
    "dire": 2446,
    "worth</w>": 2447,
    "eas": 2448,
    "hi</w>": 2449,
    "posi": 2450,
    "key</w>": 2451,
    "fla": 2452,
    "s:</w>": 2453,
    "ga</w>": 2454,
    "camp": 2455,
    "#quot": 2456,
    "mother": 2457,
    "funny</w>": 2458,
    "earli": 2459,
    "they're</w>": 2460,
    "dding</w>": 2461,
    "busy</w>": 2462,
    "w/</w>": 2463,
    "dge</w>": 2464,
    "choo": 2465,
    "non": 2466,
    "tab": 2467,
    "move</w>": 2468,
    "serv": 2469,
    "blo": 2470,
    "form": 2471,
    "respon": 2472,
    "mis": 2473,
    "ets</w>": 2474,
    "results</w>": 2475,
    "@i": 2476,
    "chur": 2477,
    "she": 2478,
    "ken": 2479,
    "date</w>": 2480,
    ".....": 2481,
    "“@revrunwisdom:</w>": 2482,
    "di</w>": 2483,
    "away.</w>": 2484,
    "kid": 2485,
    "um": 2486,
    "#peace</w>": 2487,
    "bal": 2488,
    "tran": 2489,
    "vol": 2490,
    "blu": 2491,
    "exasperation</w>": 2492,
    "dies</w>": 2493,
    "inten": 2494,
    "ini": 2495,
    "@al": 2496,
    "however</w>": 2497,
    "jb</w>": 2498,
    "av": 2499,
    "appro": 2500,
    "@_": 2501,
    "favorite</w>": 2502,
    "began</w>": 2503,
    "her.</w>": 2504,
    "faith</w>": 2505,
    "stic</w>": 2506,
    "furious</w>": 2507,
    "edu": 2508,
    "sex": 2509,
    "argu": 2510,
    "d-": 2511,
    "cuz</w>": 2512,
    "it!</w>": 2513,
    "interest": 2514,
    "govern": 2515,
    "snow</w>": 2516,
    "awkward</w>": 2517,
    "police</w>": 2518,
    "problem</w>": 2519,
    "busin": 2520,
    "chan": 2521,
    "practice</w>": 2522,
    "office</w>": 2523,
    "war</w>": 2524,
    "#ljb</w>": 2525,
    "wants</w>": 2526,
    "year.</w>": 2527,
    "fast</w>": 2528,
    "psy": 2529,
    "terr": 2530,
    "net</w>": 2531,
    "table</w>": 2532,
    "trou": 2533,
    "pau": 2534,
    "anguish</w>": 2535,
    "matter</w>": 2536,
    "cle</w>": 2537,
    "perio": 2538,
    "fight</w>": 2539,
    "iss": 2540,
    "mum</w>": 2541,
    "ited</w>": 2542,
    "wer": 2543,
    "ges</w>": 2544,
    "begin": 2545,
    "bitch</w>": 2546,
    "ain": 2547,
    "va</w>": 2548,
    "bla": 2549,
    "+</w>": 2550,
    "stru": 2551,
    "say": 2552,
    "happen": 2553,
    "exam.</w>": 2554,
    "pain": 2555,
    "wel</w>": 2556,
    "universit": 2557,
    "exams</w>": 2558,
    "knowing</w>": 2559,
    "pati": 2560,
    "moved</w>": 2561,
    "nearly</w>": 2562,
    "sleeping</w>": 2563,
    "30": 2564,
    "resent": 2565,
    "friends.</w>": 2566,
    "suppo": 2567,
    "computer</w>": 2568,
    "all.</w>": 2569,
    "leg": 2570,
    "let's</w>": 2571,
    "ser</w>": 2572,
    "bru": 2573,
    "week.</w>": 2574,
    "reas": 2575,
    "enjo": 2576,
    "&quot;@revrunwisdom:</w>": 2577,
    "mi</w>": 2578,
    "irs</w>": 2579,
    "prote": 2580,
    "pass</w>": 2581,
    "factor</w>": 2582,
    "memor": 2583,
    "baske": 2584,
    "check</w>": 2585,
    "defin": 2586,
    "13</w>": 2587,
    "are": 2588,
    "power</w>": 2589,
    "embarrassed</w>": 2590,
    "ring</w>": 2591,
    "stuff</w>": 2592,
    "dead</w>": 2593,
    "mini": 2594,
    "sunday</w>": 2595,
    "accepted</w>": 2596,
    "gift</w>": 2597,
    "cloth": 2598,
    "pin": 2599,
    "extre": 2600,
    "hold</w>": 2601,
    "saturday</w>": 2602,
    "@revrunwisdom</w>": 2603,
    "dom": 2604,
    "nat": 2605,
    "whe": 2606,
    "inside</w>": 2607,
    "us.</w>": 2608,
    "monday</w>": 2609,
    "ical</w>": 2610,
    "stand</w>": 2611,
    "thur": 2612,
    "single</w>": 2613,
    "john</w>": 2614,
    "mark</w>": 2615,
    "assi": 2616,
    "ply</w>": 2617,
    "unt": 2618,
    "pass": 2619,
    "ago": 2620,
    "n.</w>": 2621,
    "lee": 2622,
    "@c": 2623,
    "bed": 2624,
    "boys</w>": 2625,
    "walked</w>": 2626,
    "lovely</w>": 2627,
    "team": 2628,
    "hey</w>": 2629,
    "st,</w>": 2630,
    "important</w>": 2631,
    "ema": 2632,
    "wear</w>": 2633,
    "100": 2634,
    "woo": 2635,
    "free": 2636,
    "gif": 2637,
    "hee": 2638,
    "way": 2639,
    "wow</w>": 2640,
    "cky</w>": 2641,
    "mean": 2642,
    "cannot</w>": 2643,
    "ben</w>": 2644,
    "fiel": 2645,
    "seas": 2646,
    "@la": 2647,
    "ap": 2648,
    "middle</w>": 2649,
    "--": 2650,
    "learn</w>": 2651,
    "vir": 2652,
    "stic": 2653,
    "respe": 2654,
    "fire</w>": 2655,
    "ation.</w>": 2656,
    "ffed</w>": 2657,
    "totally</w>": 2658,
    "supposed</w>": 2659,
    ":'(</w>": 2660,
    "arr": 2661,
    "titude</w>": 2662,
    "caused</w>": 2663,
    "cop": 2664,
    "shop</w>": 2665,
    "seriously</w>": 2666,
    "watched</w>": 2667,
    "vil": 2668,
    "mista": 2669,
    "today,</w>": 2670,
    "vac": 2671,
    "return</w>": 2672,
    "wow": 2673,
    "gement</w>": 2674,
    "tan": 2675,
    "-_-</w>": 2676,
    "\\\"</w>": 2677,
    "_</w>": 2678,
    "step": 2679,
    "ders</w>": 2680,
    "sin</w>": 2681,
    "you'll</w>": 2682,
    "selec": 2683,
    "house.</w>": 2684,
    "drink</w>": 2685,
    "store</w>": 2686,
    "annoyance</w>": 2687,
    "gener": 2688,
    "inted</w>": 2689,
    "four</w>": 2690,
    "lady</w>": 2691,
    "lies</w>": 2692,
    "resentful</w>": 2693,
    "giv": 2694,
    "wouldn't</w>": 2695,
    "stuck</w>": 2696,
    "share</w>": 2697,
    "dist": 2698,
    "pal": 2699,
    "tire": 2700,
    "weekend": 2701,
    "cool</w>": 2702,
    "along</w>": 2703,
    "gives</w>": 2704,
    "atten": 2705,
    "tells</w>": 2706,
    "chocolate</w>": 2707,
    "apparently</w>": 2708,
    "awesome</w>": 2709,
    "self.</w>": 2710,
    "jam": 2711,
    "quar": 2712,
    "lo</w>": 2713,
    "sound</w>": 2714,
    "box</w>": 2715,
    "indignant</w>": 2716,
    "tis": 2717,
    "parent": 2718,
    "realize</w>": 2719,
    "elec": 2720,
    "street</w>": 2721,
    "waking</w>": 2722,
    "denti": 2723,
    "nigg": 2724,
    "sat</w>": 2725,
    "throw</w>": 2726,
    "flow": 2727,
    "sses</w>": 2728,
    "shor": 2729,
    "daughter</w>": 2730,
    "obvi": 2731,
    "frea": 2732,
    "manag": 2733,
    "sorrow</w>": 2734,
    "worry</w>": 2735,
    "across</w>": 2736,
    "ted.</w>": 2737,
    "commun": 2738,
    "wit</w>": 2739,
    "us": 2740,
    "kno": 2741,
    "sof": 2742,
    "perfect</w>": 2743,
    "tee": 2744,
    "ed,</w>": 2745,
    "grandmother</w>": 2746,
    "wra": 2747,
    "cin": 2748,
    "dnes": 2749,
    "hands</w>": 2750,
    "yourself</w>": 2751,
    "liked</w>": 2752,
    "university.</w>": 2753,
    "experienc": 2754,
    "rain</w>": 2755,
    "horrified</w>": 2756,
    "rou": 2757,
    "sive</w>": 2758,
    "seem</w>": 2759,
    "thankful</w>": 2760,
    "??": 2761,
    "hair": 2762,
    "maar</w>": 2763,
    "é</w>": 2764,
    "door": 2765,
    "people": 2766,
    "spee": 2767,
    "gedi": 2768,
    "black": 2769,
    "ay": 2770,
    "tici": 2771,
    "complet": 2772,
    "expect</w>": 2773,
    "short</w>": 2774,
    "exi": 2775,
    "usually</w>": 2776,
    "clean": 2777,
    "five</w>": 2778,
    "pure</w>": 2779,
    "yo</w>": 2780,
    "sir</w>": 2781,
    "c.</w>": 2782,
    "disappo": 2783,
    "thy</w>": 2784,
    "sty</w>": 2785,
    "sse": 2786,
    "action</w>": 2787,
    "em</w>": 2788,
    "me!</w>": 2789,
    "shir": 2790,
    "crying</w>": 2791,
    "father": 2792,
    "finals</w>": 2793,
    "traff": 2794,
    "@mi": 2795,
    "twitter": 2796,
    "couple</w>": 2797,
    "snow": 2798,
    "eri": 2799,
    "sla": 2800,
    "?!": 2801,
    "student</w>": 2802,
    "neigh": 2803,
    "d'": 2804,
    "iso": 2805,
    "asleep</w>": 2806,
    "reci": 2807,
    "kk": 2808,
    "cl": 2809,
    "shall</w>": 2810,
    "worried</w>": 2811,
    "&gt;</w>": 2812,
    "work,</w>": 2813,
    "one's</w>": 2814,
    "ley": 2815,
    "beha": 2816,
    "ange</w>": 2817,
    "imagine</w>": 2818,
    "prin": 2819,
    "okay</w>": 2820,
    "cy": 2821,
    "lunch</w>": 2822,
    "une</w>": 2823,
    "ggest</w>": 2824,
    "lma": 2825,
    "mel": 2826,
    "ly,</w>": 2827,
    "confi": 2828,
    "ce,</w>": 2829,
    "#quote</w>": 2830,
    "film</w>": 2831,
    "stopped</w>": 2832,
    "back.</w>": 2833,
    "thri": 2834,
    "rac": 2835,
    "pop": 2836,
    "episo": 2837,
    "poor</w>": 2838,
    "this": 2839,
    "iled</w>": 2840,
    "erg": 2841,
    "lots</w>": 2842,
    "hearing</w>": 2843,
    "crow": 2844,
    "dream</w>": 2845,
    "company</w>": 2846,
    "crea": 2847,
    "will": 2848,
    "bie": 2849,
    "night,</w>": 2850,
    "completely</w>": 2851,
    "ain't</w>": 2852,
    "astoni": 2853,
    "ality</w>": 2854,
    "herself</w>": 2855,
    "tra</w>": 2856,
    "plan</w>": 2857,
    "omg</w>": 2858,
    "hospital</w>": 2859,
    "selves</w>": 2860,
    "amaz": 2861,
    "ally": 2862,
    "you!</w>": 2863,
    "vel</w>": 2864,
    "personal</w>": 2865,
    "stro": 2866,
    "gram": 2867,
    "aren": 2868,
    "ana</w>": 2869,
    "text</w>": 2870,
    "nd</w>": 2871,
    "plus</w>": 2872,
    "effor": 2873,
    "trust</w>": 2874,
    "p,</w>": 2875,
    "starting</w>": 2876,
    "deal</w>": 2877,
    "appo": 2878,
    "@jo": 2879,
    "liter": 2880,
    "service</w>": 2881,
    "minute</w>": 2882,
    "@ma": 2883,
    "decem": 2884,
    "kid</w>": 2885,
    "curi": 2886,
    "summer</w>": 2887,
    "danc": 2888,
    "caught</w>": 2889,
    "00</w>": 2890,
    "itely</w>": 2891,
    "fec": 2892,
    "anim": 2893,
    "side": 2894,
    "l'": 2895,
    "ahh": 2896,
    "mic": 2897,
    "canc": 2898,
    "lil</w>": 2899,
    "fur": 2900,
    "#happiness</w>": 2901,
    "greatest</w>": 2902,
    "stin": 2903,
    "essay</w>": 2904,
    "turns</w>": 2905,
    "!!!!!!!!": 2906,
    "rr": 2907,
    "cast</w>": 2908,
    "consider": 2909,
    "amuse": 2910,
    "clothes</w>": 2911,
    "order</w>": 2912,
    "oo</w>": 2913,
    "gro": 2914,
    "fortun": 2915,
    "ues</w>": 2916,
    "list</w>": 2917,
    "fat</w>": 2918,
    "number</w>": 2919,
    "dead": 2920,
    "ket</w>": 2921,
    "tes</w>": 2922,
    "incre": 2923,
    "games</w>": 2924,
    "wonder</w>": 2925,
    "ry.</w>": 2926,
    "land": 2927,
    "sty": 2928,
    "days.</w>": 2929,
    "e...</w>": 2930,
    "answer</w>": 2931,
    "hy": 2932,
    "prepar": 2933,
    "spirit</w>": 2934,
    "hello</w>": 2935,
    "putting</w>": 2936,
    "c'": 2937,
    "amusement</w>": 2938,
    "resi": 2939,
    "sour": 2940,
    "twi": 2941,
    "project</w>": 2942,
    "dru": 2943,
    "ator</w>": 2944,
    "comfor": 2945,
    "goes</w>": 2946,
    "ski": 2947,
    "rich": 2948,
    "beat</w>": 2949,
    "jk</w>": 2950,
    "discu": 2951,
    "truth</w>": 2952,
    "miffed</w>": 2953,
    "ca</w>": 2954,
    "subjec": 2955,
    "exac": 2956,
    "hen": 2957,
    "wearing</w>": 2958,
    "radio</w>": 2959,
    "business</w>": 2960,
    "step</w>": 2961,
    "tie</w>": 2962,
    "!&quot;</w>": 2963,
    "21</w>": 2964,
    "rand": 2965,
    "d:</w>": 2966,
    "case</w>": 2967,
    "brought</w>": 2968,
    "agit": 2969,
    "j'ai</w>": 2970,
    "conne": 2971,
    "cap": 2972,
    "kept</w>": 2973,
    "bewil": 2974,
    "liv": 2975,
    "ems</w>": 2976,
    "q</w>": 2977,
    "singing</w>": 2978,
    "doctor</w>": 2979,
    "nobody</w>": 2980,
    "too.</w>": 2981,
    "played</w>": 2982,
    "se,</w>": 2983,
    "boss</w>": 2984,
    "tar": 2985,
    "wher": 2986,
    "iling</w>": 2987,
    "tin": 2988,
    "fal": 2989,
    "even": 2990,
    "deser": 2991,
    "government</w>": 2992,
    "needed</w>": 2993,
    "@g": 2994,
    "certain": 2995,
    "sion": 2996,
    "within</w>": 2997,
    "sweet</w>": 2998,
    "bat": 2999,
    "naar</w>": 3000,
    "spor": 3001,
    "either</w>": 3002,
    "married</w>": 3003,
    "ented</w>": 3004,
    "fav": 3005,
    "vent</w>": 3006,
    "road": 3007,
    "huge</w>": 3008,
    "curr": 3009,
    "serious</w>": 3010,
    "thu": 3011,
    "needs</w>": 3012,
    "difficult</w>": 3013,
    "aaaa": 3014,
    "entire</w>": 3015,
    "anger": 3016,
    "mot": 3017,
    "threat": 3018,
    "a,</w>": 3019,
    "smo": 3020,
    "long": 3021,
    "rob": 3022,
    "paul</w>": 3023,
    "known</w>": 3024,
    "pleas": 3025,
    "examination</w>": 3026,
    "seme": 3027,
    "natur": 3028,
    "followed</w>": 3029,
    "sor": 3030,
    "definitely</w>": 3031,
    "longer</w>": 3032,
    "smh</w>": 3033,
    "pun": 3034,
    "straight</w>": 3035,
    "scen": 3036,
    "tain</w>": 3037,
    "speak</w>": 3038,
    "wing</w>": 3039,
    "attemp": 3040,
    "rt": 3041,
    "beli": 3042,
    "exp": 3043,
    "qui</w>": 3044,
    "con</w>": 3045,
    "winning</w>": 3046,
    "avoid</w>": 3047,
    "agitated</w>": 3048,
    "human</w>": 3049,
    "search</w>": 3050,
    "1st</w>": 3051,
    "shment</w>": 3052,
    "sna": 3053,
    "soci": 3054,
    "history</w>": 3055,
    "do.</w>": 3056,
    "tv": 3057,
    "room.</w>": 3058,
    "ade": 3059,
    "perfor": 3060,
    "happy": 3061,
    "math</w>": 3062,
    "visit": 3063,
    "thanksgiv": 3064,
    "ii": 3065,
    "pictures</w>": 3066,
    "kitch": 3067,
    "ances</w>": 3068,
    "pee": 3069,
    "box": 3070,
    "@</w>": 3071,
    "yeah": 3072,
    "thats</w>": 3073,
    "15": 3074,
    "library</w>": 3075,
    "recor": 3076,
    "@dan": 3077,
    "ting": 3078,
    "ough": 3079,
    "val</w>": 3080,
    "inclu": 3081,
    "traffic</w>": 3082,
    "laugh</w>": 3083,
    "bag</w>": 3084,
    "using</w>": 3085,
    "guil": 3086,
    "offic": 3087,
    "cy</w>": 3088,
    "standing</w>": 3089,
    "accoun": 3090,
    "ade</w>": 3091,
    "message</w>": 3092,
    "fren": 3093,
    "car.</w>": 3094,
    "much": 3095,
    "ride</w>": 3096,
    "though": 3097,
    "loss</w>": 3098,
    "tay": 3099,
    "impre": 3100,
    "shower</w>": 3101,
    "opened</w>": 3102,
    "showed</w>": 3103,
    "training</w>": 3104,
    "fol": 3105,
    "elled</w>": 3106,
    "b.</w>": 3107,
    "accept</w>": 3108,
    "asha": 3109,
    "killed</w>": 3110,
    "accident</w>": 3111,
    "flu": 3112,
    "drunk</w>": 3113,
    "roo": 3114,
    "video</w>": 3115,
    "d...</w>": 3116,
    "vy</w>": 3117,
    "heartbroken</w>": 3118,
    "somebody</w>": 3119,
    "#sar": 3120,
    "choose</w>": 3121,
    "ler": 3122,
    "elation</w>": 3123,
    "intment</w>": 3124,
    "staying</w>": 3125,
    "wednes": 3126,
    "admit": 3127,
    "accu": 3128,
    "mir": 3129,
    "begin</w>": 3130,
    "appear": 3131,
    "rema": 3132,
    "yer</w>": 3133,
    "church</w>": 3134,
    "following</w>": 3135,
    "success": 3136,
    "sac": 3137,
    "bre": 3138,
    "wedding</w>": 3139,
    "sad.</w>": 3140,
    "eat": 3141,
    "excu": 3142,
    "xed</w>": 3143,
    "cher": 3144,
    "cup</w>": 3145,
    "weather</w>": 3146,
    "scor": 3147,
    "bath": 3148,
    "joy.</w>": 3149,
    "els</w>": 3150,
    "♥</w>": 3151,
    "vin": 3152,
    "roll": 3153,
    "cat</w>": 3154,
    "cup": 3155,
    "thurs": 3156,
    "ground</w>": 3157,
    "zo</w>": 3158,
    "hang": 3159,
    "major</w>": 3160,
    "pol": 3161,
    "a_": 3162,
    "ka</w>": 3163,
    "chu": 3164,
    "upset</w>": 3165,
    "pick</w>": 3166,
    "ces</w>": 3167,
    "grade</w>": 3168,
    "extrem": 3169,
    "courage</w>": 3170,
    "doub": 3171,
    "law</w>": 3172,
    "ie</w>": 3173,
    "champ": 3174,
    ":-)</w>": 3175,
    "possible</w>": 3176,
    "basketball</w>": 3177,
    "earlier</w>": 3178,
    "aun": 3179,
    "books</w>": 3180,
    "eg": 3181,
    "moving</w>": 3182,
    "ws</w>": 3183,
    "post</w>": 3184,
    "despair</w>": 3185,
    "perha": 3186,
    "shoo": 3187,
    "come": 3188,
    "low</w>": 3189,
    "ability</w>": 3190,
    "bul": 3191,
    "rain": 3192,
    "match</w>": 3193,
    "!!!!!</w>": 3194,
    "colleag": 3195,
    "try": 3196,
    "refused</w>": 3197,
    "knows</w>": 3198,
    "const": 3199,
    "eved</w>": 3200,
    "regre": 3201,
    "send</w>": 3202,
    "ia</w>": 3203,
    "conver": 3204,
    "lun": 3205,
    "becoming</w>": 3206,
    "time,</w>": 3207,
    "albu": 3208,
    "announ": 3209,
    "super": 3210,
    "health</w>": 3211,
    "ecsta": 3212,
    "winter</w>": 3213,
    "fro": 3214,
    "jes</w>": 3215,
    "w/": 3216,
    "lic": 3217,
    "infor": 3218,
    "hahaha</w>": 3219,
    "mit</w>": 3220,
    "o'": 3221,
    "heada": 3222,
    "works</w>": 3223,
    "now,</w>": 3224,
    "tives</w>": 3225,
    "gun": 3226,
    "ath": 3227,
    "rs</w>": 3228,
    "weird</w>": 3229,
    "hh</w>": 3230,
    "power": 3231,
    "continu": 3232,
    "mur": 3233,
    "end.</w>": 3234,
    "expla": 3235,
    "like": 3236,
    "scream": 3237,
    "learned</w>": 3238,
    "biggest</w>": 3239,
    "hope": 3240,
    "cover</w>": 3241,
    "picture</w>": 3242,
    "complete</w>": 3243,
    "despite</w>": 3244,
    "extremely</w>": 3245,
    "ingly</w>": 3246,
    "champi": 3247,
    "ko": 3248,
    "dans</w>": 3249,
    "performan": 3250,
    "invol": 3251,
    "lef": 3252,
    "gue</w>": 3253,
    "span": 3254,
    "fair</w>": 3255,
    "support</w>": 3256,
    "@n": 3257,
    "vers</w>": 3258,
    "exactly</w>": 3259,
    "bet</w>": 3260,
    "sn": 3261,
    "uncle</w>": 3262,
    "ically</w>": 3263,
    "card</w>": 3264,
    "family.</w>": 3265,
    "ina</w>": 3266,
    "ian</w>": 3267,
    "“@revrunwisdom</w>": 3268,
    "moo": 3269,
    "rest": 3270,
    "page</w>": 3271,
    "friend,</w>": 3272,
    "que": 3273,
    "hot": 3274,
    "lee</w>": 3275,
    "question</w>": 3276,
    "chel": 3277,
    "strong</w>": 3278,
    "items</w>": 3279,
    "ahead</w>": 3280,
    "lights</w>": 3281,
    "ctly</w>": 3282,
    "ug": 3283,
    "198": 3284,
    "fig": 3285,
    "ang</w>": 3286,
    "\\\"": 3287,
    "m,</w>": 3288,
    "selected</w>": 3289,
    "shot</w>": 3290,
    "wt": 3291,
    "norm": 3292,
    "prou": 3293,
    "cation</w>": 3294,
    "harry</w>": 3295,
    "ashamed</w>": 3296,
    "perhaps</w>": 3297,
    "@r": 3298,
    "jer": 3299,
    "pizz": 3300,
    "angry.</w>": 3301,
    "forced</w>": 3302,
    "clear": 3303,
    "@li": 3304,
    "bac": 3305,
    "lives</w>": 3306,
    "feet</w>": 3307,
    "fish</w>": 3308,
    "res</w>": 3309,
    "gym</w>": 3310,
    "starts</w>": 3311,
    "uu": 3312,
    "remin": 3313,
    "faces</w>": 3314,
    "chic": 3315,
    "upon</w>": 3316,
    "ker": 3317,
    "compe": 3318,
    "gradu": 3319,
    "ment.</w>": 3320,
    "drinking</w>": 3321,
    "extra</w>": 3322,
    "w.</w>": 3323,
    "disgu": 3324,
    "inging</w>": 3325,
    "wall</w>": 3326,
    "weer</w>": 3327,
    "everybody</w>": 3328,
    "ecstatic</w>": 3329,
    "secret</w>": 3330,
    "second": 3331,
    "load": 3332,
    "express</w>": 3333,
    "livid</w>": 3334,
    "heb</w>": 3335,
    "mates</w>": 3336,
    "fell": 3337,
    "sen</w>": 3338,
    "re.</w>": 3339,
    "way.</w>": 3340,
    "get": 3341,
    "despondent</w>": 3342,
    "...i</w>": 3343,
    "#joy</w>": 3344,
    "cir": 3345,
    "mped</w>": 3346,
    "facebook</w>": 3347,
    "round</w>": 3348,
    "tel": 3349,
    "def": 3350,
    "eless</w>": 3351,
    "du</w>": 3352,
    "-.": 3353,
    "future": 3354,
    "word": 3355,
    "mana": 3356,
    "ham</w>": 3357,
    "focu": 3358,
    "field</w>": 3359,
    "clear</w>": 3360,
    "eve</w>": 3361,
    "tho": 3362,
    "born</w>": 3363,
    "ging</w>": 3364,
    "sign</w>": 3365,
    "note</w>": 3366,
    "entr": 3367,
    "ess,</w>": 3368,
    ":30</w>": 3369,
    "tweets</w>": 3370,
    "forever</w>": 3371,
    "well.</w>": 3372,
    "nor</w>": 3373,
    "bill</w>": 3374,
    "auth": 3375,
    "maken</w>": 3376,
    "poo": 3377,
    "allow</w>": 3378,
    "photo": 3379,
    "ming</w>": 3380,
    "tomorrow!</w>": 3381,
    "blan": 3382,
    "descri": 3383,
    "provi": 3384,
    "afternoon</w>": 3385,
    "soo": 3386,
    "offended</w>": 3387,
    "wont</w>": 3388,
    "ignor": 3389,
    "beat": 3390,
    "well,</w>": 3391,
    "anymore</w>": 3392,
    "proc": 3393,
    "deb": 3394,
    "shes</w>": 3395,
    "23</w>": 3396,
    "catch</w>": 3397,
    "regi": 3398,
    "piece</w>": 3399,
    "s_": 3400,
    "repe": 3401,
    "keeps</w>": 3402,
    "ddy</w>": 3403,
    "sinter": 3404,
    "bottle</w>": 3405,
    "organ": 3406,
    "friend's</w>": 3407,
    "literally</w>": 3408,
    "love.</w>": 3409,
    "phe": 3410,
    "start": 3411,
    "french</w>": 3412,
    "social</w>": 3413,
    "wit": 3414,
    "celebrate</w>": 3415,
    "concert</w>": 3416,
    "neighb": 3417,
    "ou</w>": 3418,
    "stop": 3419,
    "people.</w>": 3420,
    "clean</w>": 3421,
    "mary</w>": 3422,
    "mour": 3423,
    "sky": 3424,
    "@mr": 3425,
    "ing...</w>": 3426,
    "whate": 3427,
    "didnt</w>": 3428,
    "more.</w>": 3429,
    "ren": 3430,
    "sam": 3431,
    "honest": 3432,
    "discovered</w>": 3433,
    "mov": 3434,
    "shut</w>": 3435,
    "spea": 3436,
    "luck</w>": 3437,
    "kinda</w>": 3438,
    "casm</w>": 3439,
    "produc": 3440,
    "tion,</w>": 3441,
    "final": 3442,
    "devel": 3443,
    "home,</w>": 3444,
    "whether</w>": 3445,
    "50</w>": 3446,
    "-.-</w>": 3447,
    "dn</w>": 3448,
    "so,</w>": 3449,
    "fami": 3450,
    "miss": 3451,
    "care": 3452,
    "lecture": 3453,
    "dor": 3454,
    "staf": 3455,
    "ford</w>": 3456,
    "shopp": 3457,
    ":)": 3458,
    "yo": 3459,
    "psycho": 3460,
    "mouth</w>": 3461,
    "jus</w>": 3462,
    "gas</w>": 3463,
    "ers.</w>": 3464,
    "niet</w>": 3465,
    "performance</w>": 3466,
    "000</w>": 3467,
    "disgr": 3468,
    "bed.</w>": 3469,
    "close": 3470,
    "promised</w>": 3471,
    "cute</w>": 3472,
    "papers</w>": 3473,
    "period</w>": 3474,
    "large</w>": 3475,
    "chee": 3476,
    "officially</w>": 3477,
    "certainly</w>": 3478,
    "jud": 3479,
    "behavi": 3480,
    "santa</w>": 3481,
    "te.</w>": 3482,
    "official": 3483,
    "dag</w>": 3484,
    "window</w>": 3485,
    "understand": 3486,
    "rite</w>": 3487,
    "remembered</w>": 3488,
    "#in": 3489,
    "......</w>": 3490,
    "ky</w>": 3491,
    "easy</w>": 3492,
    "kic": 3493,
    "turning</w>": 3494,
    "hours.</w>": 3495,
    "lonely</w>": 3496,
    "ze": 3497,
    "row</w>": 3498,
    "court</w>": 3499,
    "@un": 3500,
    "ude</w>": 3501,
    "changed</w>": 3502,
    "bloo": 3503,
    "die": 3504,
    "admitted</w>": 3505,
    "air</w>": 3506,
    "nega": 3507,
    "dress</w>": 3508,
    "@nic": 3509,
    "&#xa;&#xa;": 3510,
    "bank</w>": 3511,
    "sun</w>": 3512,
    "th,</w>": 3513,
    "securi": 3514,
    "anxie": 3515,
    "third</w>": 3516,
    "this.</w>": 3517,
    "south</w>": 3518,
    "false</w>": 3519,
    "ck.</w>": 3520,
    "seat</w>": 3521,
    "pill": 3522,
    "ap</w>": 3523,
    "exasperated</w>": 3524,
    "cake</w>": 3525,
    "wro": 3526,
    "wrote</w>": 3527,
    "dejec": 3528,
    "dying</w>": 3529,
    "victor": 3530,
    "relationshi": 3531,
    "one,</w>": 3532,
    "kel": 3533,
    "zin": 3534,
    "sau": 3535,
    "&gt;&gt;": 3536,
    "accident.</w>": 3537,
    "lap": 3538,
    "hil": 3539,
    "attack</w>": 3540,
    "on!</w>": 3541,
    "sinterkla": 3542,
    "mijn</w>": 3543,
    "tical</w>": 3544,
    "condi": 3545,
    "loving</w>": 3546,
    "lion</w>": 3547,
    "art</w>": 3548,
    "aan</w>": 3549,
    "warm</w>": 3550,
    "#fb</w>": 3551,
    "friends!</w>": 3552,
    "learning</w>": 3553,
    "members</w>": 3554,
    "pa</w>": 3555,
    "ghtly</w>": 3556,
    "stry</w>": 3557,
    "online</w>": 3558,
    "truly</w>": 3559,
    "stairs</w>": 3560,
    "fail</w>": 3561,
    "thing,</w>": 3562,
    "attention</w>": 3563,
    "december</w>": 3564,
    "marri": 3565,
    "examp": 3566,
    "14": 3567,
    "to.</w>": 3568,
    "compla": 3569,
    "presents</w>": 3570,
    "grav": 3571,
    "lack</w>": 3572,
    "net": 3573,
    "nap</w>": 3574,
    "happy.</w>": 3575,
    "thro": 3576,
    "evidence</w>": 3577,
    "14</w>": 3578,
    "london</w>": 3579,
    "s...": 3580,
    "ssive</w>": 3581,
    "excuse</w>": 3582,
    "ender</w>": 3583,
    "sur</w>": 3584,
    "allowed</w>": 3585,
    "sh.</w>": 3586,
    "clock</w>": 3587,
    "much.</w>": 3588,
    "bon": 3589,
    "ex</w>": 3590,
    "@da": 3591,
    "gged</w>": 3592,
    "beginning</w>": 3593,
    "overjo": 3594,
    "gor": 3595,
    "thir": 3596,
    "result</w>": 3597,
    "management</w>": 3598,
    "ble.</w>": 3599,
    "person.</w>": 3600,
    "bil": 3601,
    "c'est</w>": 3602,
    "vil</w>": 3603,
    "cousin": 3604,
    "blue</w>": 3605,
    "lot": 3606,
    "co</w>": 3607,
    "class.</w>": 3608,
    "y?</w>": 3609,
    "dir": 3610,
    "diss": 3611,
    "|</w>": 3612,
    "tour": 3613,
    "lucky</w>": 3614,
    "voic": 3615,
    "tific": 3616,
    "**": 3617,
    "alarm</w>": 3618,
    "bow": 3619,
    "&lt;&lt;": 3620,
    "#go": 3621,
    "floor</w>": 3622,
    "sum</w>": 3623,
    "breaking</w>": 3624,
    "stated</w>": 3625,
    "despondency</w>": 3626,
    "spar": 3627,
    "worked</w>": 3628,
    "moun": 3629,
    "students</w>": 3630,
    "slow": 3631,
    "off.</w>": 3632,
    "there.</w>": 3633,
    "scot": 3634,
    "program": 3635,
    "pizza</w>": 3636,
    "vision</w>": 3637,
    "younger</w>": 3638,
    "here.</w>": 3639,
    "trac": 3640,
    "that.</w>": 3641,
    "yu": 3642,
    "board</w>": 3643,
    "up,</w>": 3644,
    "sex</w>": 3645,
    "ths</w>": 3646,
    "antly</w>": 3647,
    "ound": 3648,
    "studi": 3649,
    "h.</w>": 3650,
    "brown</w>": 3651,
    "bc</w>": 3652,
    "half": 3653,
    "ired</w>": 3654,
    "never": 3655,
    "bott": 3656,
    "teeth</w>": 3657,
    "expecte": 3658,
    "s!!</w>": 3659,
    "partment</w>": 3660,
    "za": 3661,
    "am.</w>": 3662,
    "abo": 3663,
    "station</w>": 3664,
    "fle": 3665,
    "doll": 3666,
    "pas": 3667,
    "collector</w>": 3668,
    "in,</w>": 3669,
    "school,</w>": 3670,
    "ounded</w>": 3671,
    "tions.</w>": 3672,
    "#fear</w>": 3673,
    "years.</w>": 3674,
    "grandfather</w>": 3675,
    "bert</w>": 3676,
    "blessed</w>": 3677,
    "save</w>": 3678,
    "pop</w>": 3679,
    "morgen</w>": 3680,
    "ge,</w>": 3681,
    "trouble</w>": 3682,
    "movies</w>": 3683,
    "disgrunt": 3684,
    "k!</w>": 3685,
    "kan</w>": 3686,
    "pissed</w>": 3687,
    "ence.</w>": 3688,
    "deter": 3689,
    "fear.</w>": 3690,
    "mais</w>": 3691,
    "incon": 3692,
    "stomach</w>": 3693,
    "ext": 3694,
    "journey</w>": 3695,
    "speaking</w>": 3696,
    "$</w>": 3697,
    "bio": 3698,
    ".~": 3699,
    "baby": 3700,
    "sort</w>": 3701,
    "christmas.</w>": 3702,
    "national</w>": 3703,
    "somewhere</w>": 3704,
    "swear</w>": 3705,
    "feared</w>": 3706,
    "bag": 3707,
    "cab": 3708,
    "ator": 3709,
    "make": 3710,
    "conversa": 3711,
    "simply</w>": 3712,
    "planned</w>": 3713,
    ":p</w>": 3714,
    "assign": 3715,
    "bey": 3716,
    "wn</w>": 3717,
    "cousin</w>": 3718,
    "themselves</w>": 3719,
    "ado</w>": 3720,
    "join</w>": 3721,
    "18</w>": 3722,
    "rt,</w>": 3723,
    "rom": 3724,
    "david</w>": 3725,
    "smell": 3726,
    "mission</w>": 3727,
    "we've</w>": 3728,
    "six</w>": 3729,
    "@fan": 3730,
    "h,</w>": 3731,
    "eye</w>": 3732,
    "infuri": 3733,
    "ing?</w>": 3734,
    "understood</w>": 3735,
    "stayed</w>": 3736,
    "secondary</w>": 3737,
    "best": 3738,
    "lied</w>": 3739,
    "holidays</w>": 3740,
    "arti": 3741,
    "disappointed</w>": 3742,
    "survi": 3743,
    "elli": 3744,
    "smell</w>": 3745,
    "quick</w>": 3746,
    "easi": 3747,
    "interesting</w>": 3748,
    "alarmed</w>": 3749,
    "sleep.</w>": 3750,
    "shirt</w>": 3751,
    "killing</w>": 3752,
    "ipo": 3753,
    "family": 3754,
    "overjoyed</w>": 3755,
    "@me": 3756,
    "und": 3757,
    "asi": 3758,
    "al,</w>": 3759,
    "threw</w>": 3760,
    "streng": 3761,
    "ghting</w>": 3762,
    "lying</w>": 3763,
    "appointment</w>": 3764,
    "anni": 3765,
    "research</w>": 3766,
    "hit": 3767,
    "falling</w>": 3768,
    "suppor": 3769,
    "decision</w>": 3770,
    "driver</w>": 3771,
    "morning,</w>": 3772,
    "gett": 3773,
    "@unite": 3774,
    "@unitedn": 3775,
    "@unitednude</w>": 3776,
    "#rt</w>": 3777,
    "#win</w>": 3778,
    "god.</w>": 3779,
    "treat": 3780,
    "ava": 3781,
    "fan</w>": 3782,
    "@em": 3783,
    "apo": 3784,
    "faith": 3785,
    "t-": 3786,
    "jeal": 3787,
    "ku": 3788,
    "inger</w>": 3789,
    "reco": 3790,
    "bro</w>": 3791,
    "heading</w>": 3792,
    "gned</w>": 3793,
    "ve,</w>": 3794,
    "emotion</w>": 3795,
    "simple</w>": 3796,
    "lol.</w>": 3797,
    "marks</w>": 3798,
    "bull": 3799,
    "local</w>": 3800,
    "when": 3801,
    "proud</w>": 3802,
    "a.": 3803,
    "xx</w>": 3804,
    "plu": 3805,
    "hadn't</w>": 3806,
    "aren't</w>": 3807,
    "s&quot;</w>": 3808,
    "insul": 3809,
    "suck": 3810,
    "rock": 3811,
    "sad": 3812,
    "@sh": 3813,
    "stol": 3814,
    "#sarcasm</w>": 3815,
    "@lu": 3816,
    "au</w>": 3817,
    "receive</w>": 3818,
    "tues": 3819,
    "shift</w>": 3820,
    "ung</w>": 3821,
    "ences</w>": 3822,
    "party": 3823,
    "daily</w>": 3824,
    "park</w>": 3825,
    "club</w>": 3826,
    "via</w>": 3827,
    "ada</w>": 3828,
    "erci": 3829,
    "iz": 3830,
    "entrance</w>": 3831,
    "d's</w>": 3832,
    "ever.</w>": 3833,
    "fill</w>": 3834,
    "expressed</w>": 3835,
    "jaja": 3836,
    "ja</w>": 3837,
    "jack": 3838,
    "bar</w>": 3839,
    "i.</w>": 3840,
    "full": 3841,
    "dogs</w>": 3842,
    "cular": 3843,
    "inve": 3844,
    "sat": 3845,
    "dit": 3846,
    "lived</w>": 3847,
    "slightly</w>": 3848,
    "y'": 3849,
    "source</w>": 3850,
    "mm</w>": 3851,
    "responsi": 3852,
    "len": 3853,
    "alle": 3854,
    "chinese</w>": 3855,
    "security</w>": 3856,
    "deeply</w>": 3857,
    "ris</w>": 3858,
    "@mar": 3859,
    "s/": 3860,
    "occa": 3861,
    "dent</w>": 3862,
    "drop</w>": 3863,
    "&lt;</w>": 3864,
    "24</w>": 3865,
    "e-": 3866,
    "green</w>": 3867,
    "bored</w>": 3868,
    "pic</w>": 3869,
    "ent,</w>": 3870,
    "euro": 3871,
    "mention</w>": 3872,
    "low": 3873,
    "jesu": 3874,
    "ho</w>": 3875,
    "g,</w>": 3876,
    "loud</w>": 3877,
    "ston</w>": 3878,
    "#ha": 3879,
    "ls</w>": 3880,
    "phi": 3881,
    "argument</w>": 3882,
    "compan": 3883,
    "ox": 3884,
    "book": 3885,
    "peac": 3886,
    "viol": 3887,
    "glor": 3888,
    "cess": 3889,
    "obviously</w>": 3890,
    "zijn</w>": 3891,
    "p!</w>": 3892,
    "gain</w>": 3893,
    "t.": 3894,
    "ay</w>": 3895,
    "ai": 3896,
    "hanging</w>": 3897,
    "wen</w>": 3898,
    "wednesday</w>": 3899,
    "astonishment</w>": 3900,
    "cry": 3901,
    "fer</w>": 3902,
    "sis</w>": 3903,
    "ars</w>": 3904,
    "waited</w>": 3905,
    "mart</w>": 3906,
    "si</w>": 3907,
    "dare</w>": 3908,
    "9:": 3909,
    "l.</w>": 3910,
    "whose</w>": 3911,
    "ideas</w>": 3912,
    "oppor": 3913,
    "experienced</w>": 3914,
    "calling</w>": 3915,
    "myself.</w>": 3916,
    "deva": 3917,
    "anger.</w>": 3918,
    "appreci": 3919,
    "everyday</w>": 3920,
    "satis": 3921,
    "gan</w>": 3922,
    "holy</w>": 3923,
    "whatever</w>": 3924,
    "):</w>": 3925,
    "mone": 3926,
    "clearly</w>": 3927,
    "airport</w>": 3928,
    "takes</w>": 3929,
    "fans</w>": 3930,
    "arrived</w>": 3931,
    "chair</w>": 3932,
    "aching</w>": 3933,
    "18": 3934,
    "jac": 3935,
    "double</w>": 3936,
    "heavy</w>": 3937,
    "god,</w>": 3938,
    "american</w>": 3939,
    "dit</w>": 3940,
    "pw": 3941,
    "bby</w>": 3942,
    "blood</w>": 3943,
    "failure</w>": 3944,
    "commit": 3945,
    "science</w>": 3946,
    "classes</w>": 3947,
    "kitchen</w>": 3948,
    "notic": 3949,
    "shame</w>": 3950,
    "45</w>": 3951,
    "thoughts</w>": 3952,
    "sweat": 3953,
    "priv": 3954,
    "nn": 3955,
    "lmao</w>": 3956,
    "fair": 3957,
    "proper": 3958,
    "thought": 3959,
    "speech</w>": 3960,
    "promise</w>": 3961,
    "ally.</w>": 3962,
    "#not</w>": 3963,
    "lik": 3964,
    "lay</w>": 3965,
    "fellow</w>": 3966,
    "frank": 3967,
    "e?</w>": 3968,
    "infuriated</w>": 3969,
    "terribly</w>": 3970,
    "ages</w>": 3971,
    "ssment</w>": 3972,
    "jack</w>": 3973,
    "#life</w>": 3974,
    "anxiety</w>": 3975,
    "town": 3976,
    "disgruntled</w>": 3977,
    "richard</w>": 3978,
    "mming</w>": 3979,
    "sky</w>": 3980,
    "quarre": 3981,
    "buying</w>": 3982,
    "ant.</w>": 3983,
    "level</w>": 3984,
    "horrible</w>": 3985,
    "attac": 3986,
    "fy</w>": 3987,
    "rose</w>": 3988,
    "led.</w>": 3989,
    "blin": 3990,
    "writ": 3991,
    "wards</w>": 3992,
    "ris": 3993,
    "grin": 3994,
    "alone.</w>": 3995,
    "emplo": 3996,
    "fit</w>": 3997,
    "centr": 3998,
    "pm</w>": 3999,
    "gedicht</w>": 4000,
    "tonight!</w>": 4001,
    "1:": 4002,
    "gay</w>": 4003,
    "langu": 4004,
    "17</w>": 4005,
    "vacation</w>": 4006,
    "whel": 4007,
    "tickets</w>": 4008,
    "separated</w>": 4009,
    "#faith</w>": 4010,
    "confidence</w>": 4011,
    "surprised</w>": 4012,
    "ured</w>": 4013,
    "ends</w>": 4014,
    "n,</w>": 4015,
    "meant</w>": 4016,
    "@official": 4017,
    "favou": 4018,
    "depression</w>": 4019,
    "hau": 4020,
    "touch</w>": 4021,
    "weekend.</w>": 4022,
    "vis": 4023,
    "loves</w>": 4024,
    "ial</w>": 4025,
    "plans</w>": 4026,
    "isa": 4027,
    "ero</w>": 4028,
    "cand": 4029,
    "regar": 4030,
    "england</w>": 4031,
    "problem": 4032,
    "anyway</w>": 4033,
    "jump</w>": 4034,
    "........": 4035,
    "mach": 4036,
    "downcast</w>": 4037,
    "-__-</w>": 4038,
    "gli": 4039,
    "stood</w>": 4040,
    "oppo": 4041,
    "report</w>": 4042,
    "sequ": 4043,
    "#god</w>": 4044,
    "desi": 4045,
    "&quot;i</w>": 4046,
    "@br": 4047,
    "particular": 4048,
    "post": 4049,
    "sters</w>": 4050,
    "@car": 4051,
    "m'": 4052,
    "nur": 4053,
    "site</w>": 4054,
    "exist": 4055,
    "funer": 4056,
    "figure</w>": 4057,
    "fake</w>": 4058,
    "laughter</w>": 4059,
    "gni": 4060,
    "ss.</w>": 4061,
    "closed</w>": 4062,
    "dancing</w>": 4063,
    "devastated</w>": 4064,
    "memories</w>": 4065,
    "questions</w>": 4066,
    "mess</w>": 4067,
    "acting</w>": 4068,
    "anne</w>": 4069,
    "happens</w>": 4070,
    "done.</w>": 4071,
    "ami": 4072,
    "mo</w>": 4073,
    "gotten</w>": 4074,
    "among</w>": 4075,
    "compli": 4076,
    "cheer": 4077,
    "cream</w>": 4078,
    "headache</w>": 4079,
    "sed.</w>": 4080,
    "bath</w>": 4081,
    "session</w>": 4082,
    "kne": 4083,
    "episode</w>": 4084,
    "dest</w>": 4085,
    "asking</w>": 4086,
    "resta": 4087,
    "restaur": 4088,
    "develop": 4089,
    "(i</w>": 4090,
    "ference</w>": 4091,
    "achi": 4092,
    "mind": 4093,
    "speci": 4094,
    "wood</w>": 4095,
    "bell": 4096,
    "pper</w>": 4097,
    "se!</w>": 4098,
    "]</w>": 4099,
    "ings.</w>": 4100,
    "yay</w>": 4101,
    "spread</w>": 4102,
    "older</w>": 4103,
    "awake</w>": 4104,
    "competi": 4105,
    "elling</w>": 4106,
    "bright</w>": 4107,
    "birth</w>": 4108,
    "pak": 4109,
    "fly</w>": 4110,
    "esca": 4111,
    "@mat": 4112,
    "dude</w>": 4113,
    "cel": 4114,
    "guilty</w>": 4115,
    "teen": 4116,
    "bringing</w>": 4117,
    "…</w>": 4118,
    "ook": 4119,
    "zen</w>": 4120,
    "tea</w>": 4121,
    "#</w>": 4122,
    "manager</w>": 4123,
    "ness.</w>": 4124,
    "john": 4125,
    "unfortun": 4126,
    "quick": 4127,
    "christ</w>": 4128,
    "treated</w>": 4129,
    "tu</w>": 4130,
    "ra</w>": 4131,
    "e:</w>": 4132,
    "steal</w>": 4133,
    "spira": 4134,
    "amused</w>": 4135,
    "phon": 4136,
    "welcome</w>": 4137,
    "pants</w>": 4138,
    "resu": 4139,
    "swa": 4140,
    "lead</w>": 4141,
    "in-": 4142,
    "100%</w>": 4143,
    "las</w>": 4144,
    "news": 4145,
    "ished</w>": 4146,
    "moet</w>": 4147,
    "ch,</w>": 4148,
    "abu": 4149,
    "gifts</w>": 4150,
    "sexu": 4151,
    "brothers</w>": 4152,
    "degre": 4153,
    "days,</w>": 4154,
    "set": 4155,
    "picked</w>": 4156,
    "building</w>": 4157,
    "man,</w>": 4158,
    "relea": 4159,
    "bility</w>": 4160,
    "pay": 4161,
    "ba</w>": 4162,
    "min</w>": 4163,
    "realised</w>": 4164,
    "freed": 4165,
    "sports</w>": 4166,
    "spanish</w>": 4167,
    "bol": 4168,
    "strange</w>": 4169,
    "hungr": 4170,
    "ore": 4171,
    "good.</w>": 4172,
    "unable</w>": 4173,
    "male</w>": 4174,
    "jun": 4175,
    "fanta": 4176,
    "except</w>": 4177,
    "dd</w>": 4178,
    "tics</w>": 4179,
    "likes</w>": 4180,
    "stuff": 4181,
    "avond</w>": 4182,
    "confu": 4183,
    "cried</w>": 4184,
    "dol": 4185,
    "staff</w>": 4186,
    "presentation</w>": 4187,
    "nie": 4188,
    "klaar": 4189,
    "reac": 4190,
    "earth</w>": 4191,
    "led": 4192,
    "s'</w>": 4193,
    "ridi": 4194,
    "unexpected</w>": 4195,
    "teen</w>": 4196,
    "nephe": 4197,
    "songs</w>": 4198,
    "gin": 4199,
    "ful.</w>": 4200,
    "friends,</w>": 4201,
    "wide</w>": 4202,
    "16</w>": 4203,
    "shu": 4204,
    "particularly</w>": 4205,
    "ignore</w>": 4206,
    "e_": 4207,
    "accused</w>": 4208,
    "slept</w>": 4209,
    "t_": 4210,
    "expecting</w>": 4211,
    "kom": 4212,
    "rij": 4213,
    "emotion": 4214,
    "eeee": 4215,
    "klaar</w>": 4216,
    "ill.</w>": 4217,
    "&quot;the</w>": 4218,
    "threatened</w>": 4219,
    "id.</w>": 4220,
    "lif": 4221,
    "scri": 4222,
    ",000</w>": 4223,
    "question": 4224,
    "nasty</w>": 4225,
    "ago.</w>": 4226,
    "anti": 4227,
    "...and</w>": 4228,
    "boar": 4229,
    "badly</w>": 4230,
    "former</w>": 4231,
    "ke,</w>": 4232,
    "ler</w>": 4233,
    "respect</w>": 4234,
    "&amp;&amp;</w>": 4235,
    "gol": 4236,
    "ast</w>": 4237,
    "notice</w>": 4238,
    "relatives</w>": 4239,
    "sey</w>": 4240,
    "others.</w>": 4241,
    "pack": 4242,
    "critici": 4243,
    "overwhel": 4244,
    "scene</w>": 4245,
    "continue</w>": 4246,
    "tho</w>": 4247,
    "over.</w>": 4248,
    "occ": 4249,
    "tation</w>": 4250,
    "yor": 4251,
    "law": 4252,
    "???</w>": 4253,
    "nel</w>": 4254,
    "non</w>": 4255,
    "mes</w>": 4256,
    "@officialpw": 4257,
    "china</w>": 4258,
    "opini": 4259,
    "world": 4260,
    "gratitude</w>": 4261,
    "repor": 4262,
    "lets</w>": 4263,
    "glu": 4264,
    "study": 4265,
    "insi": 4266,
    "necess": 4267,
    "helping</w>": 4268,
    "drove</w>": 4269,
    "beyond</w>": 4270,
    "y...</w>": 4271,
    "machine</w>": 4272,
    "sand": 4273,
    "track</w>": 4274,
    "@h": 4275,
    "test": 4276,
    "dep": 4277,
    "slow</w>": 4278,
    "goal</w>": 4279,
    "hole</w>": 4280,
    "likely</w>": 4281,
    "@ra": 4282,
    "stun": 4283,
    "del</w>": 4284,
    "joke</w>": 4285,
    "@am": 4286,
    "stration</w>": 4287,
    "imp": 4288,
    "dirty</w>": 4289,
    "random</w>": 4290,
    "semester</w>": 4291,
    "life,</w>": 4292,
    "cs</w>": 4293,
    "spect</w>": 4294,
    "er!</w>": 4295,
    "need": 4296,
    "grow</w>": 4297,
    "shou": 4298,
    "ow.</w>": 4299,
    "night!</w>": 4300,
    "ppy</w>": 4301,
    "ora</w>": 4302,
    "lam": 4303,
    "more": 4304,
    "cheer</w>": 4305,
    "has": 4306,
    "entered</w>": 4307,
    "mix": 4308,
    "normal</w>": 4309,
    "pet</w>": 4310,
    "community</w>": 4311,
    "#happy": 4312,
    "mine.</w>": 4313,
    "main</w>": 4314,
    "e.": 4315,
    "profess": 4316,
    "stal": 4317,
    "#n": 4318,
    "honestly</w>": 4319,
    "attitude</w>": 4320,
    "cken</w>": 4321,
    "aware</w>": 4322,
    "fallen</w>": 4323,
    "suck</w>": 4324,
    "taste</w>": 4325,
    "requ": 4326,
    "circu": 4327,
    "morning": 4328,
    "mb</w>": 4329,
    "revul": 4330,
    "revulsion</w>": 4331,
    "niggas</w>": 4332,
    "aint</w>": 4333,
    "nes": 4334,
    "motiv": 4335,
    "ence": 4336,
    "sm</w>": 4337,
    "doubt</w>": 4338,
    "wanting</w>": 4339,
    "#love": 4340,
    "hilar": 4341,
    "!?</w>": 4342,
    "wash": 4343,
    "boyfriend.</w>": 4344,
    "gger</w>": 4345,
    "cleaning</w>": 4346,
    "face.</w>": 4347,
    "unexpecte": 4348,
    "enjoying</w>": 4349,
    "sinterklaas</w>": 4350,
    "ates</w>": 4351,
    "fighting</w>": 4352,
    "leg</w>": 4353,
    "adi": 4354,
    "illing</w>": 4355,
    "agree</w>": 4356,
    "do,</w>": 4357,
    "stage</w>": 4358,
    "suc": 4359,
    "#not": 4360,
    "lit</w>": 4361,
    "thru</w>": 4362,
    "wall": 4363,
    "contact</w>": 4364,
    "player</w>": 4365,
    "25</w>": 4366,
    "religi": 4367,
    "ty.</w>": 4368,
    "fashi": 4369,
    "press</w>": 4370,
    "day...</w>": 4371,
    "ima</w>": 4372,
    "down.</w>": 4373,
    "decide</w>": 4374,
    "relief</w>": 4375,
    "amoun": 4376,
    "thursday</w>": 4377,
    "peeved</w>": 4378,
    "ik": 4379,
    "sure": 4380,
    "shad": 4381,
    "kni": 4382,
    "holding</w>": 4383,
    "ity.</w>": 4384,
    "suffered</w>": 4385,
    "talked</w>": 4386,
    "seven</w>": 4387,
    "@le": 4388,
    "ii</w>": 4389,
    "shows</w>": 4390,
    "uit": 4391,
    "self-": 4392,
    "iest</w>": 4393,
    ".”</w>": 4394,
    "laughing</w>": 4395,
    "ml</w>": 4396,
    "ism</w>": 4397,
    "ron": 4398,
    "impression</w>": 4399,
    "involved</w>": 4400,
    "ket": 4401,
    "up!</w>": 4402,
    "america</w>": 4403,
    "plane</w>": 4404,
    "bom": 4405,
    "death.</w>": 4406,
    "ation,</w>": 4407,
    "gel": 4408,
    "anymore.</w>": 4409,
    "wishing</w>": 4410,
    "growing</w>": 4411,
    "passing</w>": 4412,
    "practic": 4413,
    "suppose</w>": 4414,
    "ury</w>": 4415,
    "mation</w>": 4416,
    "bod": 4417,
    "stress</w>": 4418,
    "everytime</w>": 4419,
    "bieber</w>": 4420,
    "hhh</w>": 4421,
    "horse</w>": 4422,
    "world.</w>": 4423,
    "ala": 4424,
    "#no": 4425,
    "grew</w>": 4426,
    "grate": 4427,
    "ist</w>": 4428,
    "ning": 4429,
    "rock</w>": 4430,
    "2nd</w>": 4431,
    "qu'": 4432,
    ":(": 4433,
    "gie</w>": 4434,
    "ella</w>": 4435,
    "yal</w>": 4436,
    "graph": 4437,
    "waste</w>": 4438,
    "yn": 4439,
    "@officialpwg</w>": 4440,
    "congr": 4441,
    "favourite</w>": 4442,
    "focus</w>": 4443,
    "gho": 4444,
    "future.</w>": 4445,
    "journ": 4446,
    "exhau": 4447,
    "villa": 4448,
    "tish</w>": 4449,
    "cooki": 4450,
    "dé": 4451,
    "sending</w>": 4452,
    "recently</w>": 4453,
    "advent</w>": 4454,
    "tum": 4455,
    "breakfast</w>": 4456,
    "trav": 4457,
    "near": 4458,
    "liam": 4459,
    "alread": 4460,
    "tle": 4461,
    "tin</w>": 4462,
    "enn": 4463,
    "tha</w>": 4464,
    "none</w>": 4465,
    "shine</w>": 4466,
    "beer</w>": 4467,
    "?&quot;</w>": 4468,
    "hang</w>": 4469,
    "wondering</w>": 4470,
    "t...</w>": 4471,
    "ably</w>": 4472,
    "higher</w>": 4473,
    "bou": 4474,
    "learnt</w>": 4475,
    "carry</w>": 4476,
    "&quot;.</w>": 4477,
    "caf": 4478,
    "ief</w>": 4479,
    "key": 4480,
    "thom": 4481,
    "patient</w>": 4482,
    "man.</w>": 4483,
    "natural</w>": 4484,
    "profes": 4485,
    "punch</w>": 4486,
    "custom": 4487,
    "chall": 4488,
    "term</w>": 4489,
    "reason": 4490,
    "pier": 4491,
    "danger": 4492,
    "b.": 4493,
    "roll</w>": 4494,
    "abi": 4495,
    "pack</w>": 4496,
    "decorating</w>": 4497,
    "appeared</w>": 4498,
    "17": 4499,
    "champion": 4500,
    "theat": 4501,
    "dv": 4502,
    "lor</w>": 4503,
    "now!</w>": 4504,
    "whenever</w>": 4505,
    "drake</w>": 4506,
    "stron": 4507,
    "soul</w>": 4508,
    "appearing</w>": 4509,
    "hardly</w>": 4510,
    "child": 4511,
    "parents.</w>": 4512,
    "mourn": 4513,
    "place.</w>": 4514,
    "sola": 4515,
    "letting</w>": 4516,
    "bunch</w>": 4517,
    "gent": 4518,
    "acc": 4519,
    "pit": 4520,
    "200": 4521,
    "bration</w>": 4522,
    "glo": 4523,
    "mama</w>": 4524,
    "awful</w>": 4525,
    "go.</w>": 4526,
    "medical</w>": 4527,
    "berry</w>": 4528,
    "water": 4529,
    "explo": 4530,
    "mind.</w>": 4531,
    "hrs</w>": 4532,
    "@ro": 4533,
    "eph": 4534,
    "contented</w>": 4535,
    "difficul": 4536,
    "moment": 4537,
    "ce.</w>": 4538,
    "again!</w>": 4539,
    "be.</w>": 4540,
    "ive</w>": 4541,
    "positive</w>": 4542,
    "day..</w>": 4543,
    "father's</w>": 4544,
    "@an": 4545,
    "homework": 4546,
    "pregnant</w>": 4547,
    "ful,</w>": 4548,
    "ph</w>": 4549,
    "bathroom</w>": 4550,
    "too!</w>": 4551,
    "intro": 4552,
    "noi": 4553,
    "prince</w>": 4554,
    "blam": 4555,
    "lock": 4556,
    "time!</w>": 4557,
    "doct": 4558,
    "area</w>": 4559,
    "bie</w>": 4560,
    "o,</w>": 4561,
    "knut": 4562,
    "considerable</w>": 4563,
    "mother.</w>": 4564,
    "lm": 4565,
    "basically</w>": 4566,
    "aling</w>": 4567,
    "mrs</w>": 4568,
    "out,</w>": 4569,
    "flight</w>": 4570,
    "corre": 4571,
    "los</w>": 4572,
    "sucks</w>": 4573,
    "tivity</w>": 4574,
    "cular</w>": 4575,
    "disp": 4576,
    "ng</w>": 4577,
    "onto</w>": 4578,
    "eel</w>": 4579,
    "@p": 4580,
    "arms</w>": 4581,
    "tem": 4582,
    "ills</w>": 4583,
    "ase</w>": 4584,
    "explain</w>": 4585,
    "☺</w>": 4586,
    "@re": 4587,
    "foot</w>": 4588,
    "cow": 4589,
    "bewildered</w>": 4590,
    "believ": 4591,
    "bird</w>": 4592,
    "immedi": 4593,
    "acqu": 4594,
    "startled</w>": 4595,
    "deau": 4596,
    "tje</w>": 4597,
    "hide</w>": 4598,
    "aul": 4599,
    "kers</w>": 4600,
    "aroun": 4601,
    "example</w>": 4602,
    "rar": 4603,
    "pants.</w>": 4604,
    "interest</w>": 4605,
    "cards</w>": 4606,
    "event</w>": 4607,
    "climb": 4608,
    "hoping</w>": 4609,
    "aunt</w>": 4610,
    "rele": 4611,
    "soul": 4612,
    "slowly</w>": 4613,
    "o-": 4614,
    "safe": 4615,
    "irri": 4616,
    "glass</w>": 4617,
    "job.</w>": 4618,
    "schedu": 4619,
    "ded.</w>": 4620,
    "chosen</w>": 4621,
    "ch!</w>": 4622,
    "lab": 4623,
    "flat</w>": 4624,
    "destro": 4625,
    "sick": 4626,
    "pulled</w>": 4627,
    "h!</w>": 4628,
    "bin": 4629,
    "ever,</w>": 4630,
    "pleasure</w>": 4631,
    "stricken</w>": 4632,
    "spin": 4633,
    "grow": 4634,
    "ando</w>": 4635,
    "interview</w>": 4636,
    "@just": 4637,
    "hall</w>": 4638,
    "therefor": 4639,
    "wear": 4640,
    "language</w>": 4641,
    "mun": 4642,
    "is,</w>": 4643,
    "charac": 4644,
    "sal</w>": 4645,
    "physical</w>": 4646,
    "cher</w>": 4647,
    "hood</w>": 4648,
    "spoke</w>": 4649,
    "lonel": 4650,
    "sight</w>": 4651,
    "at.</w>": 4652,
    "ale</w>": 4653,
    "direction</w>": 4654,
    "tech": 4655,
    "planning</w>": 4656,
    "thin</w>": 4657,
    "ved.</w>": 4658,
    "cook</w>": 4659,
    "propo": 4660,
    "coach</w>": 4661,
    "ony</w>": 4662,
    "trans": 4663,
    "cing</w>": 4664,
    "cancer</w>": 4665,
    "dreams</w>": 4666,
    "attend</w>": 4667,
    "private</w>": 4668,
    "sea</w>": 4669,
    "shared</w>": 4670,
    "ority</w>": 4671,
    "tory</w>": 4672,
    "from": 4673,
    "y's</w>": 4674,
    "ssion": 4675,
    "parking</w>": 4676,
    "vex": 4677,
    "su</w>": 4678,
    "smith</w>": 4679,
    "d?</w>": 4680,
    "base": 4681,
    "xd</w>": 4682,
    "energ": 4683,
    "happening</w>": 4684,
    "una</w>": 4685,
    "particular</w>": 4686,
    "shit.</w>": 4687,
    "tour</w>": 4688,
    "teach</w>": 4689,
    "crowd</w>": 4690,
    "band": 4691,
    "ticket</w>": 4692,
    "ally,</w>": 4693,
    "dag": 4694,
    "enter</w>": 4695,
    "surr": 4696,
    "bloody</w>": 4697,
    "crap</w>": 4698,
    "creep": 4699,
    "chemi": 4700,
    "idi": 4701,
    "added</w>": 4702,
    "calm</w>": 4703,
    "enjoyed</w>": 4704,
    "sale</w>": 4705,
    "purpo": 4706,
    "gui": 4707,
    "ek</w>": 4708,
    "stan": 4709,
    "juli": 4710,
    "embarrassment</w>": 4711,
    "agreed</w>": 4712,
    "ambi": 4713,
    "burn</w>": 4714,
    "foot": 4715,
    "common</w>": 4716,
    "ature</w>": 4717,
    "@t": 4718,
    "realise</w>": 4719,
    "anguished</w>": 4720,
    "neighbour": 4721,
    "!!!!!!</w>": 4722,
    "lij": 4723,
    "ordered</w>": 4724,
    "an.</w>": 4725,
    "throat</w>": 4726,
    "fire": 4727,
    "dark": 4728,
    "sions</w>": 4729,
    "in'</w>": 4730,
    "event": 4731,
    "bear</w>": 4732,
    "is.</w>": 4733,
    "kiss</w>": 4734,
    "heel</w>": 4735,
    "bub": 4736,
    "ounds</w>": 4737,
    "star</w>": 4738,
    "tern": 4739,
    "shouldn't</w>": 4740,
    "deman": 4741,
    "-stricken</w>": 4742,
    "nov": 4743,
    "shee": 4744,
    "year,</w>": 4745,
    "united</w>": 4746,
    "camer": 4747,
    "ising</w>": 4748,
    "check": 4749,
    "yeah,</w>": 4750,
    "myself": 4751,
    "success</w>": 4752,
    "dentist</w>": 4753,
    "speak": 4754,
    "tests</w>": 4755,
    "mistake</w>": 4756,
    "dick</w>": 4757,
    "starbu": 4758,
    "hat</w>": 4759,
    "heeft</w>": 4760,
    "increas": 4761,
    "attempt</w>": 4762,
    "stupi": 4763,
    "ram": 4764,
    "lin</w>": 4765,
    "biology</w>": 4766,
    "ior</w>": 4767,
    "tre</w>": 4768,
    "fresh</w>": 4769,
    "didn</w>": 4770,
    "laptop</w>": 4771,
    "@sam": 4772,
    "24": 4773,
    "exciting</w>": 4774,
    "quality</w>": 4775,
    "@f": 4776,
    "desol": 4777,
    "quit</w>": 4778,
    "en!</w>": 4779,
    "raged</w>": 4780,
    "ggle</w>": 4781,
    "ham": 4782,
    "s)</w>": 4783,
    "tively</w>": 4784,
    "bewilder": 4785,
    "bewilderment</w>": 4786,
    "minister</w>": 4787,
    "www": 4788,
    "or.</w>": 4789,
    "closer</w>": 4790,
    "nights</w>": 4791,
    "uk": 4792,
    "o_": 4793,
    "progre": 4794,
    "internet</w>": 4795,
    "#jesu": 4796,
    "arrang": 4797,
    "dis</w>": 4798,
    "joyful</w>": 4799,
    "unfortunately</w>": 4800,
    "prepared</w>": 4801,
    "elle</w>": 4802,
    "ance.</w>": 4803,
    "drama</w>": 4804,
    "preci": 4805,
    "solo</w>": 4806,
    "smells</w>": 4807,
    "outta</w>": 4808,
    "hahaha": 4809,
    "nigga</w>": 4810,
    "gedich": 4811,
    "presence</w>": 4812,
    "create</w>": 4813,
    "pes</w>": 4814,
    "lesson</w>": 4815,
    "echt</w>": 4816,
    "operation</w>": 4817,
    "turkey</w>": 4818,
    "creative</w>": 4819,
    "sop": 4820,
    "luke</w>": 4821,
    "still": 4822,
    "#lord</w>": 4823,
    "22</w>": 4824,
    "itu": 4825,
    "press": 4826,
    "y:</w>": 4827,
    "augu": 4828,
    "thrilled</w>": 4829,
    "brand</w>": 4830,
    "empty</w>": 4831,
    "rush</w>": 4832,
    "pul": 4833,
    "chat</w>": 4834,
    "sharing</w>": 4835,
    "respect": 4836,
    "lek": 4837,
    "negative</w>": 4838,
    "soon": 4839,
    "poin": 4840,
    "ed!</w>": 4841,
    "game.</w>": 4842,
    "previ": 4843,
    "slu": 4844,
    "together.</w>": 4845,
    "dia</w>": 4846,
    "tered</w>": 4847,
    "inconsola": 4848,
    "@de": 4849,
    "aded</w>": 4850,
    "o'clock</w>": 4851,
    "who's</w>": 4852,
    "relax": 4853,
    "tradi": 4854,
    "price</w>": 4855,
    "ledge</w>": 4856,
    "bless": 4857,
    "ks.</w>": 4858,
    "mall</w>": 4859,
    "noise</w>": 4860,
    "accident": 4861,
    "rise</w>": 4862,
    "jen": 4863,
    "insulted</w>": 4864,
    "grateful</w>": 4865,
    "ee</w>": 4866,
    "consu": 4867,
    "emi": 4868,
    "exper": 4869,
    "discon": 4870,
    "ski</w>": 4871,
    "socie": 4872,
    "sides</w>": 4873,
    "terly</w>": 4874,
    "#surprise</w>": 4875,
    "sta</w>": 4876,
    "sign": 4877,
    ".......</w>": 4878,
    "also,</w>": 4879,
    "chicken</w>": 4880,
    "type</w>": 4881,
    "wise</w>": 4882,
    "obe": 4883,
    "wed</w>": 4884,
    "a!</w>": 4885,
    "@bri": 4886,
    "opening</w>": 4887,
    "goodbye</w>": 4888,
    "paying</w>": 4889,
    "@x": 4890,
    "grace</w>": 4891,
    "introdu": 4892,
    "s....</w>": 4893,
    "desolate</w>": 4894,
    "beaten</w>": 4895,
    "else": 4896,
    "92</w>": 4897,
    "currently</w>": 4898,
    "mail</w>": 4899,
    "cousins</w>": 4900,
    "birthday": 4901,
    "vot": 4902,
    "yu</w>": 4903,
    "managed</w>": 4904,
    "vet</w>": 4905,
    "sounded</w>": 4906,
    "stole</w>": 4907,
    "cket</w>": 4908,
    "ants</w>": 4909,
    "pie</w>": 4910,
    "za</w>": 4911,
    "kat": 4912,
    "pull</w>": 4913,
    "asse": 4914,
    "lazy</w>": 4915,
    "thus</w>": 4916,
    "arranged</w>": 4917,
    "craw": 4918,
    "-___-</w>": 4919,
    "sheer</w>": 4920,
    "passion</w>": 4921,
    "girl.</w>": 4922,
    "roommate</w>": 4923,
    "human": 4924,
    "invited</w>": 4925,
    "master</w>": 4926,
    "stunned</w>": 4927,
    "load</w>": 4928,
    "leu": 4929,
    "rip</w>": 4930,
    "mul": 4931,
    "ridicul": 4932,
    "invit": 4933,
    "pha": 4934,
    "ington</w>": 4935,
    "@o": 4936,
    "alive</w>": 4937,
    "y'all</w>": 4938,
    "wtf</w>": 4939,
    "st-": 4940,
    "sick.</w>": 4941,
    "pen</w>": 4942,
    "dele": 4943,
    ":o</w>": 4944,
    "calls</w>": 4945,
    "chuck": 4946,
    ".&</w>": 4947,
    "sacri": 4948,
    "opportun": 4949,
    "cadeau": 4950,
    "16": 4951,
    "bij</w>": 4952,
    "yers</w>": 4953,
    "belo": 4954,
    "tom</w>": 4955,
    "vent": 4956,
    "result": 4957,
    "campus</w>": 4958,
    "effect</w>": 4959,
    "rep": 4960,
    "general</w>": 4961,
    "west</w>": 4962,
    "sym": 4963,
    "sooo</w>": 4964,
    "laughed</w>": 4965,
    "acle</w>": 4966,
    "physics</w>": 4967,
    "tt</w>": 4968,
    "head.</w>": 4969,
    "afri": 4970,
    "ner.</w>": 4971,
    "n'": 4972,
    "visi": 4973,
    "mournful</w>": 4974,
    "tout</w>": 4975,
    "shel": 4976,
    "inconsolable</w>": 4977,
    "tear": 4978,
    "web": 4979,
    "anny</w>": 4980,
    "style</w>": 4981,
    "choic": 4982,
    "determin": 4983,
    "f.</w>": 4984,
    "visiting</w>": 4985,
    "elle": 4986,
    "smiles</w>": 4987,
    "no,</w>": 4988,
    "reply</w>": 4989,
    "we'll</w>": 4990,
    "fing": 4991,
    "sab": 4992,
    "stolen</w>": 4993,
    "subject</w>": 4994,
    "gel</w>": 4995,
    ",,": 4996,
    "smiling</w>": 4997,
    "m.": 4998,
    "restaurant</w>": 4999
  },
  "id2token": {
    "0": "<PAD>",
    "1": "<UNK>",
    "2": "<EOS>",
    "3": "!",
    "4": "\"",
    "5": "#",
    "6": "$",
    "7": "%",
    "8": "&",
    "9": "'",
    "10": "(",
    "11": ")",
    "12": "*",
    "13": "+",
    "14": ",",
    "15": "-",
    "16": ".",
    "17": "/",
    "18": "0",
    "19": "1",
    "20": "2",
    "21": "3",
    "22": "4",
    "23": "5",
    "24": "6",
    "25": "7",
    "26": "8",
    "27": "9",
    "28": ":",
    "29": ";",
    "30": "</w>",
    "31": "=",
    "32": "?",
    "33": "@",
    "34": "[",
    "35": "\\",
    "36": "]",
    "37": "^",
    "38": "_",
    "39": "`",
    "40": "a",
    "41": "b",
    "42": "c",
    "43": "d",
    "44": "e",
    "45": "f",
    "46": "g",
    "47": "h",
    "48": "i",
    "49": "j",
    "50": "k",
    "51": "l",
    "52": "m",
    "53": "n",
    "54": "o",
    "55": "p",
    "56": "q",
    "57": "r",
    "58": "s",
    "59": "t",
    "60": "u",
    "61": "v",
    "62": "w",
    "63": "x",
    "64": "y",
    "65": "z",
    "66": "{",
    "67": "|",
    "68": "}",
    "69": "~",
    "70": "¡",
    "71": "£",
    "72": "¦",
    "73": "¨",
    "74": "©",
    "75": "«",
    "76": "¬",
    "77": "°",
    "78": "´",
    "79": "¸",
    "80": "º",
    "81": "»",
    "82": "¿",
    "83": "ß",
    "84": "à",
    "85": "á",
    "86": "â",
    "87": "ã",
    "88": "ä",
    "89": "å",
    "90": "ç",
    "91": "è",
    "92": "é",
    "93": "ê",
    "94": "ë",
    "95": "ì",
    "96": "í",
    "97": "î",
    "98": "ï",
    "99": "ð",
    "100": "ñ",
    "101": "ó",
    "102": "ô",
    "103": "ö",
    "104": "÷",
    "105": "ø",
    "106": "ù",
    "107": "ú",
    "108": "û",
    "109": "ý",
    "110": "ā",
    "111": "č",
    "112": "ē",
    "113": "œ",
    "114": "ŕ",
    "115": "š",
    "116": "ŧ",
    "117": "ƪ",
    "118": "ɛ",
    "119": "ɲ",
    "120": "ʀ",
    "121": "ʃ",
    "122": "ʜ",
    "123": "ˆ",
    "124": "˘",
    "125": "˚",
    "126": "̅",
    "127": "̊",
    "128": "̣",
    "129": "̥",
    "130": "̲",
    "131": "̶",
    "132": "͡",
    "133": "έ",
    "134": "ί",
    "135": "α",
    "136": "β",
    "137": "γ",
    "138": "δ",
    "139": "ε",
    "140": "η",
    "141": "θ",
    "142": "ι",
    "143": "κ",
    "144": "λ",
    "145": "μ",
    "146": "ν",
    "147": "ο",
    "148": "π",
    "149": "ρ",
    "150": "ς",
    "151": "σ",
    "152": "τ",
    "153": "φ",
    "154": "ω",
    "155": "ό",
    "156": "є",
    "157": "ӈ",
    "158": "լ",
    "159": "ಠ",
    "160": "ก",
    "161": "ข",
    "162": "ง",
    "163": "จ",
    "164": "ญ",
    "165": "ต",
    "166": "ท",
    "167": "น",
    "168": "บ",
    "169": "ป",
    "170": "ผ",
    "171": "ม",
    "172": "ย",
    "173": "ร",
    "174": "ส",
    "175": "ห",
    "176": "อ",
    "177": "ะ",
    "178": "ั",
    "179": "า",
    "180": "ิ",
    "181": "ึ",
    "182": "ื",
    "183": "ู",
    "184": "฿",
    "185": "เ",
    "186": "ใ",
    "187": "ไ",
    "188": "็",
    "189": "้",
    "190": "ღ",
    "191": "​",
    "192": "‎",
    "193": "–",
    "194": "—",
    "195": "―",
    "196": "‘",
    "197": "’",
    "198": "“",
    "199": "”",
    "200": "†",
    "201": "•",
    "202": "…",
    "203": "‿",
    "204": "€",
    "205": "ℒ",
    "206": "ℕ",
    "207": "ℰ",
    "208": "ℳ",
    "209": "←",
    "210": "∗",
    "211": "∼",
    "212": "⋰",
    "213": "┌",
    "214": "┐",
    "215": "◄",
    "216": "◕",
    "217": "◠",
    "218": "◡",
    "219": "☀",
    "220": "☁",
    "221": "☃",
    "222": "★",
    "223": "☆",
    "224": "☑",
    "225": "☔",
    "226": "☛",
    "227": "☯",
    "228": "☹",
    "229": "☺",
    "230": "☼",
    "231": "☾",
    "232": "♏",
    "233": "♡",
    "234": "♥",
    "235": "♩",
    "236": "♪",
    "237": "♫",
    "238": "♬",
    "239": "⛄",
    "240": "✈",
    "241": "✌",
    "242": "✓",
    "243": "✔",
    "244": "✖",
    "245": "✡",
    "246": "✨",
    "247": "✽",
    "248": "✿",
    "249": "❁",
    "250": "❤",
    "251": "➨",
    "252": "⬅",
    "253": "。",
    "254": "ㄒ",
    "255": "姑",
    "256": "",
    "257": "",
    "258": "",
    "259": "",
    "260": "",
    "261": "",
    "262": "",
    "263": "",
    "264": "",
    "265": "",
    "266": "",
    "267": "",
    "268": "",
    "269": "",
    "270": "",
    "271": "",
    "272": "",
    "273": "",
    "274": "",
    "275": "",
    "276": "",
    "277": "",
    "278": "",
    "279": "",
    "280": "",
    "281": "",
    "282": "",
    "283": "",
    "284": "",
    "285": "",
    "286": "",
    "287": "",
    "288": "",
    "289": "",
    "290": "",
    "291": "",
    "292": "",
    "293": "",
    "294": "",
    "295": "",
    "296": "",
    "297": "",
    "298": "",
    "299": "",
    "300": "",
    "301": "",
    "302": "",
    "303": "",
    "304": "～",
    "305": "｡",
    "306": "￼",
    "307": "e</w>",
    "308": "t</w>",
    "309": "th",
    "310": "s</w>",
    "311": "d</w>",
    "312": "in",
    "313": "y</w>",
    "314": ".</w>",
    "315": "an",
    "316": "er",
    "317": "o</w>",
    "318": "en",
    "319": "on",
    "320": "ou",
    "321": "ing",
    "322": "or",
    "323": "i</w>",
    "324": "the</w>",
    "325": "ing</w>",
    "326": "a</w>",
    "327": "ar",
    "328": "ed</w>",
    "329": ",</w>",
    "330": "to</w>",
    "331": "al",
    "332": "re",
    "333": "ha",
    "334": "er</w>",
    "335": "f</w>",
    "336": "st",
    "337": "om",
    "338": "l</w>",
    "339": "and</w>",
    "340": "en</w>",
    "341": "at</w>",
    "342": "ch",
    "343": "is</w>",
    "344": "in</w>",
    "345": "wa",
    "346": "my</w>",
    "347": "of</w>",
    "348": "ow",
    "349": "ri",
    "350": "ti",
    "351": "el",
    "352": "on</w>",
    "353": "you",
    "354": "k</w>",
    "355": "wh",
    "356": "or</w>",
    "357": "it",
    "358": "le",
    "359": "am",
    "360": "ve</w>",
    "361": "sh",
    "362": "!</w>",
    "363": "st</w>",
    "364": "li",
    "365": "da",
    "366": "wi",
    "367": "..",
    "368": "oo",
    "369": "gh",
    "370": "be",
    "371": "at",
    "372": "ac",
    "373": "it</w>",
    "374": "ly</w>",
    "375": "for</w>",
    "376": "was</w>",
    "377": "me</w>",
    "378": "m</w>",
    "379": "se",
    "380": "an</w>",
    "381": "ma",
    "382": "you</w>",
    "383": "that</w>",
    "384": "th</w>",
    "385": "r</w>",
    "386": "ot</w>",
    "387": "di",
    "388": "es</w>",
    "389": "un",
    "390": "es",
    "391": "lo",
    "392": "p</w>",
    "393": "ow</w>",
    "394": "ro",
    "395": "il",
    "396": "ee",
    "397": "la",
    "398": "ra",
    "399": "when</w>",
    "400": "bu",
    "401": "ear",
    "402": "ic",
    "403": "se</w>",
    "404": "le</w>",
    "405": "ver",
    "406": "out</w>",
    "407": "qu",
    "408": "the",
    "409": "with</w>",
    "410": "ab",
    "411": "'s</w>",
    "412": "'t</w>",
    "413": "ur",
    "414": "day</w>",
    "415": "to",
    "416": "ke</w>",
    "417": "ex",
    "418": "not</w>",
    "419": "ge",
    "420": "pp",
    "421": "ld</w>",
    "422": "ss",
    "423": "ir",
    "424": "one</w>",
    "425": "de",
    "426": "have</w>",
    "427": "sa",
    "428": "me",
    "429": "ot",
    "430": "ght</w>",
    "431": "?</w>",
    "432": "wor",
    "433": "be</w>",
    "434": "ne",
    "435": "ent</w>",
    "436": "ch</w>",
    "437": "all</w>",
    "438": "ere</w>",
    "439": "pe",
    "440": "so</w>",
    "441": "had</w>",
    "442": "om</w>",
    "443": "g</w>",
    "444": "ju",
    "445": "this</w>",
    "446": "com",
    "447": "i'",
    "448": ";</w>",
    "449": "he</w>",
    "450": "si",
    "451": "n</w>",
    "452": "op",
    "453": "su",
    "454": "al</w>",
    "455": "but</w>",
    "456": "fri",
    "457": "ol",
    "458": "fu",
    "459": "mo",
    "460": "som",
    "461": "ent",
    "462": "as",
    "463": "go",
    "464": "ther</w>",
    "465": "ll</w>",
    "466": "mi",
    "467": "fr",
    "468": "ad",
    "469": "king</w>",
    "470": "ter</w>",
    "471": "ce</w>",
    "472": "are</w>",
    "473": "now</w>",
    "474": "de</w>",
    "475": "pa",
    "476": "just</w>",
    "477": "...</w>",
    "478": "con",
    "479": "quot",
    "480": "s.</w>",
    "481": "af",
    "482": "w</w>",
    "483": "for",
    "484": "ver</w>",
    "485": "ould</w>",
    "486": "mor",
    "487": "day",
    "488": "&quot",
    "489": "ally</w>",
    "490": "as</w>",
    "491": "ag",
    "492": "fe",
    "493": "frien",
    "494": "we</w>",
    "495": "up</w>",
    "496": "ca",
    "497": "i'm</w>",
    "498": "orr",
    "499": "bo",
    "500": "tion</w>",
    "501": "sp",
    "502": "wha",
    "503": "your</w>",
    "504": "ni",
    "505": "about</w>",
    "506": "she</w>",
    "507": "oun",
    "508": "ter",
    "509": "hi",
    "510": "ta",
    "511": ":</w>",
    "512": "per",
    "513": "don",
    "514": "his</w>",
    "515": "vi",
    "516": "par",
    "517": "te",
    "518": "do",
    "519": "amp",
    "520": "ss</w>",
    "521": "pre",
    "522": "d.</w>",
    "523": "ting</w>",
    "524": "her</w>",
    "525": "mu",
    "526": "e.</w>",
    "527": "wee",
    "528": "ted</w>",
    "529": "from</w>",
    "530": "tr",
    "531": "time</w>",
    "532": "ds</w>",
    "533": "get</w>",
    "534": "fin",
    "535": "of",
    "536": "ang",
    "537": "jo",
    "538": "ts</w>",
    "539": "..</w>",
    "540": "do</w>",
    "541": "very</w>",
    "542": "h</w>",
    "543": "what</w>",
    "544": "fa",
    "545": "like</w>",
    "546": "!!",
    "547": "he",
    "548": "id</w>",
    "549": "love</w>",
    "550": "am</w>",
    "551": "ear</w>",
    "552": "they</w>",
    "553": "our</w>",
    "554": "&amp",
    "555": "ack</w>",
    "556": "no",
    "557": "no</w>",
    "558": "ci",
    "559": "gi",
    "560": "ood</w>",
    "561": "by</w>",
    "562": "ving</w>",
    "563": "thing</w>",
    "564": ")</w>",
    "565": "happ",
    "566": "car",
    "567": "tom",
    "568": "some",
    "569": "hom",
    "570": "pro",
    "571": "&amp;</w>",
    "572": "n't</w>",
    "573": "y.</w>",
    "574": "can",
    "575": "loo",
    "576": "te</w>",
    "577": "cu",
    "578": "tion",
    "579": "em",
    "580": "ad</w>",
    "581": "tomorr",
    "582": "ght",
    "583": "ev",
    "584": "wan",
    "585": "don't</w>",
    "586": "ck",
    "587": "got</w>",
    "588": "po",
    "589": "gu",
    "590": "ir</w>",
    "591": "all",
    "592": "we",
    "593": "pu",
    "594": "ate</w>",
    "595": "chri",
    "596": "will</w>",
    "597": "ye",
    "598": "our",
    "599": "u</w>",
    "600": "min",
    "601": "go</w>",
    "602": "-</w>",
    "603": "ell</w>",
    "604": "can</w>",
    "605": "sh</w>",
    "606": "ying</w>",
    "607": "ame</w>",
    "608": "gr",
    "609": "gh</w>",
    "610": "ess</w>",
    "611": "peop",
    "612": "&quot;",
    "613": "christ",
    "614": "if</w>",
    "615": "cau",
    "616": "gre",
    "617": "der",
    "618": "ther",
    "619": "fi",
    "620": "br",
    "621": "back</w>",
    "622": "sel",
    "623": "going</w>",
    "624": "own</w>",
    "625": "some</w>",
    "626": "fac",
    "627": "were</w>",
    "628": "been</w>",
    "629": "man",
    "630": "mas</w>",
    "631": "sch",
    "632": "work</w>",
    "633": "ho",
    "634": "way</w>",
    "635": "friend</w>",
    "636": "how</w>",
    "637": "stu",
    "638": "there</w>",
    "639": "tw",
    "640": "2</w>",
    "641": "who</w>",
    "642": "is",
    "643": "thin",
    "644": "and",
    "645": "know</w>",
    "646": "ked</w>",
    "647": "more</w>",
    "648": "today</w>",
    "649": "good</w>",
    "650": "it's</w>",
    "651": "co",
    "652": "pl",
    "653": "fee",
    "654": "ks</w>",
    "655": "people</w>",
    "656": "ill</w>",
    "657": "ck</w>",
    "658": "ell",
    "659": "see</w>",
    "660": "bi",
    "661": "tu",
    "662": "ty</w>",
    "663": "ar</w>",
    "664": "ong</w>",
    "665": "ep",
    "666": "ound</w>",
    "667": "&quot;</w>",
    "668": "ry</w>",
    "669": "would</w>",
    "670": "...",
    "671": "mon",
    "672": "tur",
    "673": "fir",
    "674": "thou",
    "675": "cause</w>",
    "676": "ning</w>",
    "677": "b</w>",
    "678": "du",
    "679": "lea",
    "680": "re</w>",
    "681": "other</w>",
    "682": "s,</w>",
    "683": "ous</w>",
    "684": "then</w>",
    "685": "after</w>",
    "686": "ys</w>",
    "687": "ster",
    "688": "!!</w>",
    "689": "mar",
    "690": "christmas</w>",
    "691": "hear",
    "692": "star",
    "693": "schoo",
    "694": "ssed</w>",
    "695": "home</w>",
    "696": "us</w>",
    "697": "rea",
    "698": "0</w>",
    "699": "ful</w>",
    "700": "ke",
    "701": "feel</w>",
    "702": "lu",
    "703": "than",
    "704": "really</w>",
    "705": "ie",
    "706": "night</w>",
    "707": "c</w>",
    "708": "\"</w>",
    "709": "gir",
    "710": "him</w>",
    "711": "’</w>",
    "712": "ation</w>",
    "713": "na</w>",
    "714": "fe</w>",
    "715": "ever",
    "716": "has</w>",
    "717": "fel",
    "718": "sur",
    "719": "their</w>",
    "720": "ve",
    "721": "3</w>",
    "722": "end</w>",
    "723": "so",
    "724": "pla",
    "725": "being</w>",
    "726": "only</w>",
    "727": "did</w>",
    "728": "dis",
    "729": "its</w>",
    "730": "t.</w>",
    "731": "ings</w>",
    "732": "end",
    "733": "new</w>",
    "734": "ru",
    "735": "tomorrow",
    "736": "im",
    "737": "feel",
    "738": "me.</w>",
    "739": "ff",
    "740": "think</w>",
    "741": "dy</w>",
    "742": "dn't</w>",
    "743": "ssi",
    "744": "because</w>",
    "745": "last</w>",
    "746": "felt</w>",
    "747": "can't</w>",
    "748": "ment</w>",
    "749": "first</w>",
    "750": "now",
    "751": "ing.</w>",
    "752": "(</w>",
    "753": "mb",
    "754": "afra",
    "755": "ely</w>",
    "756": "aga",
    "757": "could</w>",
    "758": "over</w>",
    "759": "ill",
    "760": "sed</w>",
    "761": "run",
    "762": "ard</w>",
    "763": "bro",
    "764": "ity</w>",
    "765": "ge</w>",
    "766": "ic</w>",
    "767": "d,</w>",
    "768": "na",
    "769": "come</w>",
    "770": "wat",
    "771": "ers</w>",
    "772": "make</w>",
    "773": "afraid</w>",
    "774": "pri",
    "775": "ton",
    "776": "ice</w>",
    "777": "col",
    "778": "even</w>",
    "779": "cla",
    "780": "into</w>",
    "781": "read",
    "782": "bl",
    "783": "why</w>",
    "784": "sle",
    "785": "sm",
    "786": "ser",
    "787": "tting</w>",
    "788": "ph",
    "789": "them</w>",
    "790": "oh</w>",
    "791": "ft</w>",
    "792": "off</w>",
    "793": "ents</w>",
    "794": "happy</w>",
    "795": "sta",
    "796": "man</w>",
    "797": "any",
    "798": "too</w>",
    "799": "every",
    "800": "whi",
    "801": "ce",
    "802": "au",
    "803": ":)</w>",
    "804": "`</w>",
    "805": "life</w>",
    "806": "year",
    "807": "fam",
    "808": "able</w>",
    "809": "much</w>",
    "810": "clo",
    "811": "des",
    "812": "rt</w>",
    "813": "ec",
    "814": "app",
    "815": "ved</w>",
    "816": "y,</w>",
    "817": "ated</w>",
    "818": "tra",
    "819": "son</w>",
    "820": "vo",
    "821": "cre",
    "822": "school</w>",
    "823": "ite</w>",
    "824": "x</w>",
    "825": "right</w>",
    "826": "pr",
    "827": "dd",
    "828": "ga",
    "829": "wal",
    "830": "ance</w>",
    "831": "dr",
    "832": "ile</w>",
    "833": "won",
    "834": "week",
    "835": "exc",
    "836": "want</w>",
    "837": "der</w>",
    "838": "up",
    "839": "today",
    "840": "'re</w>",
    "841": "hu",
    "842": "hou",
    "843": "self</w>",
    "844": "brea",
    "845": "off",
    "846": "1</w>",
    "847": "which</w>",
    "848": "ali",
    "849": "ence</w>",
    "850": "never</w>",
    "851": "most</w>",
    "852": "ant</w>",
    "853": "yes</w>",
    "854": "that",
    "855": "ext</w>",
    "856": "still</w>",
    "857": "seen</w>",
    "858": "che",
    "859": "5</w>",
    "860": "mom",
    "861": "eli",
    "862": "yester",
    "863": "mp",
    "864": "sin",
    "865": "ba",
    "866": "lit",
    "867": "oll",
    "868": "ine</w>",
    "869": "tri",
    "870": "ned</w>",
    "871": "than</w>",
    "872": "e,</w>",
    "873": "made</w>",
    "874": "fear</w>",
    "875": "ki",
    "876": "tal",
    "877": "thr",
    "878": "ble",
    "879": "tomorrow</w>",
    "880": "cer",
    "881": "!!!</w>",
    "882": "tle</w>",
    "883": "came</w>",
    "884": "tru",
    "885": "toni",
    "886": "it.</w>",
    "887": ":(</w>",
    "888": "ough</w>",
    "889": "ll",
    "890": "tre",
    "891": "ded</w>",
    "892": "said</w>",
    "893": "didn't</w>",
    "894": "....",
    "895": "4</w>",
    "896": "great</w>",
    "897": "befor",
    "898": "ack",
    "899": "ever</w>",
    "900": "spe",
    "901": "down</w>",
    "902": "yesterday</w>",
    "903": "ook</w>",
    "904": "getting</w>",
    "905": "mat",
    "906": "feeling</w>",
    "907": "ily</w>",
    "908": "having</w>",
    "909": "let</w>",
    "910": "im</w>",
    "911": "est",
    "912": "my",
    "913": "ace</w>",
    "914": "gra",
    "915": "told</w>",
    "916": "dn",
    "917": "cor",
    "918": "another</w>",
    "919": "well</w>",
    "920": "next</w>",
    "921": "work",
    "922": "cou",
    "923": "joy</w>",
    "924": "hour",
    "925": "et</w>",
    "926": "tim",
    "927": "shi",
    "928": "dri",
    "929": "ste",
    "930": "son",
    "931": "sto",
    "932": "gon",
    "933": "thought</w>",
    "934": "ken</w>",
    "935": "sorr",
    "936": "bir",
    "937": "excit",
    "938": "any</w>",
    "939": "ding</w>",
    "940": "someone</w>",
    "941": "before</w>",
    "942": "coming</w>",
    "943": "take</w>",
    "944": "girl",
    "945": "hel",
    "946": "where</w>",
    "947": "ened</w>",
    "948": "ster</w>",
    "949": "sit",
    "950": "ching</w>",
    "951": "ple",
    "952": "kes</w>",
    "953": "face</w>",
    "954": "chil",
    "955": "aw",
    "956": "days</w>",
    "957": "hate</w>",
    "958": "long</w>",
    "959": "two</w>",
    "960": "her",
    "961": "es.</w>",
    "962": "ut",
    "963": "gg",
    "964": "z</w>",
    "965": "ble</w>",
    "966": "sad</w>",
    "967": "bet",
    "968": "look</w>",
    "969": "s!</w>",
    "970": "een</w>",
    "971": "sho",
    "972": "something</w>",
    "973": "mother</w>",
    "974": "with",
    "975": "ves</w>",
    "976": "ready</w>",
    "977": "#le",
    "978": "fun",
    "979": "sic",
    "980": "ways</w>",
    "981": "friends</w>",
    "982": "ans</w>",
    "983": "found</w>",
    "984": "say</w>",
    "985": "best</w>",
    "986": "win",
    "987": "pi",
    "988": "bab",
    "989": "left</w>",
    "990": "tomorrow,</w>",
    "991": "old</w>",
    "992": "hop",
    "993": "should</w>",
    "994": "year</w>",
    "995": "find</w>",
    "996": "need</w>",
    "997": "les</w>",
    "998": "family</w>",
    "999": "god</w>",
    "1000": "here</w>",
    "1001": "morning</w>",
    "1002": "twee",
    "1003": "out",
    "1004": "things</w>",
    "1005": "foll",
    "1006": "away</w>",
    "1007": "ct</w>",
    "1008": "cha",
    "1009": "night",
    "1010": "m.</w>",
    "1011": "str",
    "1012": "little</w>",
    "1013": "bel",
    "1014": "la</w>",
    "1015": "cont",
    "1016": "ep</w>",
    "1017": "lt",
    "1018": "rev",
    "1019": "ct",
    "1020": "pres",
    "1021": "went</w>",
    "1022": "shed</w>",
    "1023": "lat",
    "1024": "gonna</w>",
    "1025": "ing,</w>",
    "1026": "always</w>",
    "1027": "cr",
    "1028": "ure</w>",
    "1029": "uni",
    "1030": "....</w>",
    "1031": "saw</w>",
    "1032": "memb",
    "1033": "give</w>",
    "1034": "est</w>",
    "1035": "bar",
    "1036": "gn",
    "1037": "car</w>",
    "1038": "ose</w>",
    "1039": "lol</w>",
    "1040": "own",
    "1041": "over",
    "1042": "stor",
    "1043": "again",
    "1044": "e's</w>",
    "1045": "exam",
    "1046": "twit",
    "1047": "kin",
    "1048": "every</w>",
    "1049": "por",
    "1050": "may</w>",
    "1051": "side</w>",
    "1052": "put</w>",
    "1053": "ten",
    "1054": "wait</w>",
    "1055": "cra",
    "1056": "week</w>",
    "1057": "pic",
    "1058": "ese</w>",
    "1059": "ed",
    "1060": "thank",
    "1061": "i've</w>",
    "1062": "tions</w>",
    "1063": "eep</w>",
    "1064": "ta</w>",
    "1065": "ber",
    "1066": "je</w>",
    "1067": "sha",
    "1068": "fre",
    "1069": "house</w>",
    "1070": "bad</w>",
    "1071": "ening</w>",
    "1072": "til</w>",
    "1073": "eng",
    "1074": "sing</w>",
    "1075": "boy",
    "1076": "see",
    "1077": "deli",
    "1078": "ses</w>",
    "1079": "'</w>",
    "1080": "ul",
    "1081": "dre",
    "1082": "ach",
    "1083": "coun",
    "1084": "ah</w>",
    "1085": "fl",
    "1086": "sd",
    "1087": "rela",
    "1088": "ary</w>",
    "1089": "miss</w>",
    "1090": "dy",
    "1091": "while</w>",
    "1092": "angry</w>",
    "1093": "birth",
    "1094": "ating</w>",
    "1095": "girl</w>",
    "1096": "@j",
    "1097": "friend",
    "1098": "per</w>",
    "1099": "under",
    "1100": "ed.</w>",
    "1101": "room</w>",
    "1102": "aa",
    "1103": "again</w>",
    "1104": "many</w>",
    "1105": "age</w>",
    "1106": "scar",
    "1107": "lon",
    "1108": "bed</w>",
    "1109": "hours</w>",
    "1110": "ten</w>",
    "1111": "goo",
    "1112": "wisd",
    "1113": "har",
    "1114": "ps</w>",
    "1115": "wri",
    "1116": "father</w>",
    "1117": "i'll</w>",
    "1118": "moment</w>",
    "1119": "person</w>",
    "1120": "expe",
    "1121": "led</w>",
    "1122": "inter",
    "1123": "@k",
    "1124": "cho",
    "1125": "sorry</w>",
    "1126": "cri",
    "1127": "ssion</w>",
    "1128": "giving</w>",
    "1129": "t,</w>",
    "1130": "hh",
    "1131": "war",
    "1132": "hal",
    "1133": "&lt",
    "1134": "mm",
    "1135": "ugh",
    "1136": "times</w>",
    "1137": "ha</w>",
    "1138": "yed</w>",
    "1139": "comm",
    "1140": "haha",
    "1141": "enc",
    "1142": "mee",
    "1143": "dea",
    "1144": "surpri",
    "1145": "through</w>",
    "1146": "ach</w>",
    "1147": "hope</w>",
    "1148": "thre",
    "1149": "list",
    "1150": "parents</w>",
    "1151": "ven",
    "1152": "looking</w>",
    "1153": "watching</w>",
    "1154": "__",
    "1155": "tell</w>",
    "1156": "met</w>",
    "1157": "cle",
    "1158": "such</w>",
    "1159": "ty",
    "1160": "/</w>",
    "1161": "class</w>",
    "1162": "sleep</w>",
    "1163": "new",
    "1164": "ous",
    "1165": "wait",
    "1166": "home",
    "1167": "that's</w>",
    "1168": "foo",
    "1169": "years</w>",
    "1170": "day.</w>",
    "1171": "sion</w>",
    "1172": "rememb",
    "1173": "ann",
    "1174": "il</w>",
    "1175": "colle",
    "1176": "er.</w>",
    "1177": "”</w>",
    "1178": "call",
    "1179": "@rev",
    "1180": "know",
    "1181": "sol",
    "1182": "hour</w>",
    "1183": "ssing</w>",
    "1184": "@revrun",
    "1185": "@revrunwisd",
    "1186": "anger</w>",
    "1187": "without</w>",
    "1188": "lor",
    "1189": "pping</w>",
    "1190": "you're</w>",
    "1191": "around</w>",
    "1192": "life",
    "1193": "live</w>",
    "1194": "als</w>",
    "1195": "sk",
    "1196": "tive</w>",
    "1197": "those</w>",
    "1198": "heard</w>",
    "1199": "dar",
    "1200": "peri",
    "1201": "beg",
    "1202": "ey</w>",
    "1203": "early</w>",
    "1204": "ess",
    "1205": "who",
    "1206": "sun",
    "1207": "7</w>",
    "1208": "body</w>",
    "1209": "let",
    "1210": "ur</w>",
    "1211": "v</w>",
    "1212": "8</w>",
    "1213": "lost</w>",
    "1214": "ama",
    "1215": "&lt;",
    "1216": "jec",
    "1217": "wanted</w>",
    "1218": "sw",
    "1219": "reali",
    "1220": "close</w>",
    "1221": "ja",
    "1222": "nothing</w>",
    "1223": "ason</w>",
    "1224": "world</w>",
    "1225": "#less",
    "1226": "bri",
    "1227": "et",
    "1228": "big</w>",
    "1229": "actu",
    "1230": "until</w>",
    "1231": "ass</w>",
    "1232": "e!</w>",
    "1233": "cour",
    "1234": "fini",
    "1235": "these</w>",
    "1236": "sen",
    "1237": "sure</w>",
    "1238": "6</w>",
    "1239": "tic",
    "1240": "watch</w>",
    "1241": "phone</w>",
    "1242": "oul",
    "1243": "head</w>",
    "1244": "try</w>",
    "1245": "done</w>",
    "1246": "though</w>",
    "1247": "birthday</w>",
    "1248": "start</w>",
    "1249": "show",
    "1250": "stop</w>",
    "1251": "stud",
    "1252": "ious</w>",
    "1253": "dam",
    "1254": "ner</w>",
    "1255": "also</w>",
    "1256": "makes</w>",
    "1257": "ful",
    "1258": "ms</w>",
    "1259": "mom</w>",
    "1260": "ze</w>",
    "1261": "few</w>",
    "1262": "same</w>",
    "1263": "que</w>",
    "1264": "anc",
    "1265": "dur",
    "1266": "ement</w>",
    "1267": "stre",
    "1268": "boo",
    "1269": "sleep",
    "1270": "int",
    "1271": "tonight</w>",
    "1272": "sc",
    "1273": "twitter</w>",
    "1274": "doing</w>",
    "1275": "shit</w>",
    "1276": "wom",
    "1277": "bor",
    "1278": "not",
    "1279": "ball</w>",
    "1280": "tonight",
    "1281": "finally</w>",
    "1282": "diff",
    "1283": "lot</w>",
    "1284": "00",
    "1285": "supp",
    "1286": "y!</w>",
    "1287": "din",
    "1288": "univer",
    "1289": "ward</w>",
    "1290": "school",
    "1291": "making</w>",
    "1292": "deci",
    "1293": "sy",
    "1294": "med</w>",
    "1295": "cep",
    "1296": "alone</w>",
    "1297": "han",
    "1298": "guess</w>",
    "1299": "coo",
    "1300": "ka",
    "1301": "call</w>",
    "1302": "keep</w>",
    "1303": "hor",
    "1304": "va",
    "1305": "cking</w>",
    "1306": "bit",
    "1307": "grand",
    "1308": "'ve</w>",
    "1309": "ent.</w>",
    "1310": "cc",
    "1311": "does</w>",
    "1312": "turn</w>",
    "1313": "ture</w>",
    "1314": "ner",
    "1315": "mus",
    "1316": "during</w>",
    "1317": "!!!!",
    "1318": "chang",
    "1319": "me,</w>",
    "1320": "expec",
    "1321": "pan",
    "1322": "tor",
    "1323": "pped</w>",
    "1324": "excited</w>",
    "1325": "on.</w>",
    "1326": "seem",
    "1327": "fail",
    "1328": "att",
    "1329": "spi",
    "1330": "looked</w>",
    "1331": "party</w>",
    "1332": "better</w>",
    "1333": "hur",
    "1334": "zz",
    "1335": "actually</w>",
    "1336": "@the",
    "1337": "gen",
    "1338": "myself</w>",
    "1339": "fear",
    "1340": "den",
    "1341": "se.</w>",
    "1342": "red</w>",
    "1343": "won't</w>",
    "1344": "plea",
    "1345": "@m",
    "1346": "thanks",
    "1347": "got",
    "1348": "proble",
    "1349": "thank</w>",
    "1350": "help</w>",
    "1351": "ey",
    "1352": "ef",
    "1353": "read</w>",
    "1354": "beau",
    "1355": "does",
    "1356": "underst",
    "1357": "&</w>",
    "1358": "brother</w>",
    "1359": "ased</w>",
    "1360": "follow",
    "1361": "--</w>",
    "1362": "since</w>",
    "1363": "passed</w>",
    "1364": "morn",
    "1365": "talk</w>",
    "1366": "wish</w>",
    "1367": "belie",
    "1368": "d!</w>",
    "1369": "mag",
    "1370": "leave</w>",
    "1371": "might</w>",
    "1372": "already</w>",
    "1373": "nee",
    "1374": "break",
    "1375": "lear",
    "1376": "youn",
    "1377": "ob",
    "1378": "holi",
    "1379": "da</w>",
    "1380": "show</w>",
    "1381": "movi",
    "1382": "working</w>",
    "1383": "wr",
    "1384": "ide",
    "1385": "gla",
    "1386": "lin",
    "1387": "tion.</w>",
    "1388": "full</w>",
    "1389": "today.</w>",
    "1390": "char",
    "1391": "zing</w>",
    "1392": "nice</w>",
    "1393": "ven</w>",
    "1394": "cei",
    "1395": "sister</w>",
    "1396": "sing",
    "1397": "trying</w>",
    "1398": "ak",
    "1399": "sul",
    "1400": "ele",
    "1401": "back",
    "1402": "ly",
    "1403": "un</w>",
    "1404": "10</w>",
    "1405": "el</w>",
    "1406": "down",
    "1407": "too",
    "1408": "expre",
    "1409": "ered</w>",
    "1410": "ik</w>",
    "1411": "dra",
    "1412": "ending</w>",
    "1413": "secon",
    "1414": "weekend</w>",
    "1415": "ma</w>",
    "1416": "depre",
    "1417": "tt",
    "1418": "head",
    "1419": "music</w>",
    "1420": "heart</w>",
    "1421": "must</w>",
    "1422": "tell",
    "1423": "bur",
    "1424": "ture",
    "1425": "part</w>",
    "1426": "other",
    "1427": "scared</w>",
    "1428": "half</w>",
    "1429": "person",
    "1430": "fuck</w>",
    "1431": "ici",
    "1432": "took</w>",
    "1433": "om:</w>",
    "1434": "concer",
    "1435": "ons</w>",
    "1436": "thanks</w>",
    "1437": "almost</w>",
    "1438": "terri",
    "1439": "ently</w>",
    "1440": "gri",
    "1441": "@revrunwisdom:</w>",
    "1442": "pret",
    "1443": "van</w>",
    "1444": "'ll</w>",
    "1445": "zed</w>",
    "1446": "less</w>",
    "1447": "month",
    "1448": "plan",
    "1449": "dont</w>",
    "1450": "nu",
    "1451": "till</w>",
    "1452": "ling</w>",
    "1453": "money</w>",
    "1454": "once</w>",
    "1455": "int</w>",
    "1456": "ness</w>",
    "1457": "started</w>",
    "1458": "hard</w>",
    "1459": "remember</w>",
    "1460": "believe</w>",
    "1461": "hear</w>",
    "1462": "wo",
    "1463": "cial</w>",
    "1464": "boyfriend</w>",
    "1465": "ny</w>",
    "1466": "ort</w>",
    "1467": "poli",
    "1468": "bli",
    "1469": "childr",
    "1470": "wonder",
    "1471": "taking</w>",
    "1472": "ship</w>",
    "1473": "#x",
    "1474": "stra",
    "1475": "room",
    "1476": "black</w>",
    "1477": "yet</w>",
    "1478": "place</w>",
    "1479": "break</w>",
    "1480": "play</w>",
    "1481": "je",
    "1482": "awa",
    "1483": "whole</w>",
    "1484": "ger</w>",
    "1485": "sit</w>",
    "1486": "lar",
    "1487": "ies</w>",
    "1488": "ought</w>",
    "1489": "surprise</w>",
    "1490": "gt",
    "1491": "time.</w>",
    "1492": "recei",
    "1493": "gar",
    "1494": "late</w>",
    "1495": "fied</w>",
    "1496": "des</w>",
    "1497": "friday</w>",
    "1498": "real</w>",
    "1499": "playing</w>",
    "1500": "jes",
    "1501": "fron",
    "1502": "game</w>",
    "1503": "tic</w>",
    "1504": "wanna</w>",
    "1505": "everyone</w>",
    "1506": "shop",
    "1507": "@s",
    "1508": "gam",
    "1509": "ched</w>",
    "1510": "ei",
    "1511": "vel",
    "1512": ".&quot;</w>",
    "1513": "eyes</w>",
    "1514": "by",
    "1515": "please</w>",
    "1516": "&#x",
    "1517": "&#xa",
    "1518": "great",
    "1519": "class",
    "1520": "comp",
    "1521": "ah",
    "1522": "mine</w>",
    "1523": "may",
    "1524": "cro",
    "1525": "asked</w>",
    "1526": "beauti",
    "1527": "fright",
    "1528": "hin",
    "1529": "&#xa;",
    "1530": "pe</w>",
    "1531": "died</w>",
    "1532": "die</w>",
    "1533": "turned</w>",
    "1534": "accep",
    "1535": "k.</w>",
    "1536": "ant",
    "1537": "death</w>",
    "1538": "uk</w>",
    "1539": "en.</w>",
    "1540": "es,</w>",
    "1541": "fucking</w>",
    "1542": "cal",
    "1543": "sal",
    "1544": "19",
    "1545": "yeah</w>",
    "1546": "test</w>",
    "1547": "ously</w>",
    "1548": "haha</w>",
    "1549": "ction</w>",
    "1550": "&gt",
    "1551": "dan",
    "1552": "lov",
    "1553": "le.</w>",
    "1554": ").</w>",
    "1555": "waiting</w>",
    "1556": "mad</w>",
    "1557": "dad</w>",
    "1558": "body",
    "1559": "illed</w>",
    "1560": "ef</w>",
    "1561": "fo",
    "1562": "tweet</w>",
    "1563": "don</w>",
    "1564": "bra",
    "1565": "ok</w>",
    "1566": "quite</w>",
    "1567": "self",
    "1568": "nic",
    "1569": "ban",
    "1570": "drin",
    "1571": "minut",
    "1572": "cid",
    "1573": "experi",
    "1574": "under</w>",
    "1575": "tiv",
    "1576": "used</w>",
    "1577": "seeing</w>",
    "1578": "inc",
    "1579": "ended</w>",
    "1580": "set</w>",
    "1581": "baby</w>",
    "1582": "happin",
    "1583": "sli",
    "1584": "certa",
    "1585": "horr",
    "1586": "win</w>",
    "1587": "act</w>",
    "1588": "dness</w>",
    "1589": "tomorrow.</w>",
    "1590": "follow</w>",
    "1591": "anything</w>",
    "1592": "ters</w>",
    "1593": "high</w>",
    "1594": "ins</w>",
    "1595": "cur",
    "1596": "j</w>",
    "1597": "called</w>",
    "1598": "anx",
    "1599": "quie",
    "1600": "stri",
    "1601": "doesn't</w>",
    "1602": "against</w>",
    "1603": "walk</w>",
    "1604": "book</w>",
    "1605": "gone</w>",
    "1606": "atur",
    "1607": "study</w>",
    "1608": "dro",
    "1609": "children</w>",
    "1610": "use</w>",
    "1611": "log",
    "1612": "walking</w>",
    "1613": "everything</w>",
    "1614": "three</w>",
    "1615": "ghts</w>",
    "1616": "prom",
    "1617": "well",
    "1618": "hun",
    "1619": "ff</w>",
    "1620": "thing",
    "1621": "nog</w>",
    "1622": ":d</w>",
    "1623": "pen",
    "1624": "him",
    "1625": "cked</w>",
    "1626": "fai",
    "1627": "paper</w>",
    "1628": "real",
    "1629": "hea",
    "1630": "thanksgiving</w>",
    "1631": "ears</w>",
    "1632": "pretty</w>",
    "1633": "boy</w>",
    "1634": "food</w>",
    "1635": "comes</w>",
    "1636": "one.</w>",
    "1637": "men",
    "1638": "st.</w>",
    "1639": "knew</w>",
    "1640": "ining</w>",
    "1641": "tball</w>",
    "1642": "wil",
    "1643": "what",
    "1644": "love",
    "1645": "pow",
    "1646": "tun",
    "1647": "12</w>",
    "1648": "scre",
    "1649": "how",
    "1650": "sudd",
    "1651": "comple",
    "1652": "isn't</w>",
    "1653": "vor",
    "1654": "pleased</w>",
    "1655": "dly</w>",
    "1656": "ried</w>",
    "1657": "soun",
    "1658": "shing</w>",
    "1659": "san",
    "1660": "friend.</w>",
    "1661": "20",
    "1662": "became</w>",
    "1663": "10",
    "1664": "you.</w>",
    "1665": "toge",
    "1666": "sti",
    "1667": "desp",
    "1668": "zy</w>",
    "1669": "ined</w>",
    "1670": "angu",
    "1671": "beautiful</w>",
    "1672": "hon",
    "1673": "teach",
    "1674": "heart",
    "1675": "guy</w>",
    "1676": "mil",
    "1677": "vous</w>",
    "1678": "horror</w>",
    "1679": "job</w>",
    "1680": "open</w>",
    "1681": "behin",
    "1682": "after",
    "1683": "exam</w>",
    "1684": "ish</w>",
    "1685": "lish</w>",
    "1686": "light</w>",
    "1687": "gotta</w>",
    "1688": "sitting</w>",
    "1689": "emo",
    "1690": "ber</w>",
    "1691": "ger",
    "1692": "indi",
    "1693": "shopping</w>",
    "1694": "fun</w>",
    "1695": "vie",
    "1696": "was",
    "1697": "cover",
    "1698": "@thebody",
    "1699": "9</w>",
    "1700": "'d</w>",
    "1701": "line</w>",
    "1702": "??</w>",
    "1703": "ick</w>",
    "1704": "smile</w>",
    "1705": "pra",
    "1706": "@thebodyshop",
    "1707": "fil",
    "1708": "gave</w>",
    "1709": "sts</w>",
    "1710": "gs</w>",
    "1711": "mes",
    "1712": "good",
    "1713": "resul",
    "1714": "anno",
    "1715": "inv",
    "1716": "part",
    "1717": "'m</w>",
    "1718": "prac",
    "1719": "thinking</w>",
    "1720": "sometimes</w>",
    "1721": "dou",
    "1722": "@thebodyshopuk</w>",
    "1723": "excitement</w>",
    "1724": "christma",
    "1725": "ue</w>",
    "1726": "rest</w>",
    "1727": "lou",
    "1728": "unch</w>",
    "1729": "ass",
    "1730": "one",
    "1731": "publi",
    "1732": "quest",
    "1733": "bas",
    "1734": "accid",
    "1735": "bus</w>",
    "1736": "laugh",
    "1737": "nor",
    "1738": "bad",
    "1739": "sever",
    "1740": "become</w>",
    "1741": "ya",
    "1742": "?!</w>",
    "1743": "cat",
    "1744": "medi",
    "1745": "nt</w>",
    "1746": "smi",
    "1747": "ens</w>",
    "1748": "tried</w>",
    "1749": "ise</w>",
    "1750": "miser",
    "1751": "ced</w>",
    "1752": "fact</w>",
    "1753": "night.</w>",
    "1754": "cent",
    "1755": "band</w>",
    "1756": "ghted</w>",
    "1757": "front</w>",
    "1758": "dan</w>",
    "1759": "missed</w>",
    "1760": "both</w>",
    "1761": "kn",
    "1762": "high",
    "1763": "relation",
    "1764": "child</w>",
    "1765": "behind</w>",
    "1766": "~</w>",
    "1767": "rather</w>",
    "1768": "sou",
    "1769": "g.</w>",
    "1770": "land</w>",
    "1771": "&amp;",
    "1772": "there's</w>",
    "1773": "enly</w>",
    "1774": "30</w>",
    "1775": "voor</w>",
    "1776": "sub",
    "1777": "now.</w>",
    "1778": "mind</w>",
    "1779": "differ",
    "1780": "th.</w>",
    "1781": "shar",
    "1782": "work.</w>",
    "1783": "sted</w>",
    "1784": "ww",
    "1785": "contro",
    "1786": "change</w>",
    "1787": "ry",
    "1788": "hair</w>",
    "1789": "haven",
    "1790": "news</w>",
    "1791": "delighted</w>",
    "1792": "#less”</w>",
    "1793": "offici",
    "1794": "ment",
    "1795": "each</w>",
    "1796": "them",
    "1797": "mer",
    "1798": "enti",
    "1799": "vic",
    "1800": "id",
    "1801": "frightened</w>",
    "1802": "final</w>",
    "1803": "ors</w>",
    "1804": "buy</w>",
    "1805": "they",
    "1806": "day,</w>",
    "1807": "minutes</w>",
    "1808": "sick</w>",
    "1809": "mal",
    "1810": "door</w>",
    "1811": "lord</w>",
    "1812": "nam",
    "1813": "later</w>",
    "1814": "due</w>",
    "1815": "looks</w>",
    "1816": "bit</w>",
    "1817": "ya</w>",
    "1818": "van",
    "1819": "cks</w>",
    "1820": "says</w>",
    "1821": "ton</w>",
    "1822": "succ",
    "1823": "present</w>",
    "1824": "care</w>",
    "1825": "!!!!</w>",
    "1826": "exas",
    "1827": "hand",
    "1828": "&lt;3</w>",
    "1829": "cant</w>",
    "1830": "furi",
    "1831": "your",
    "1832": "s...</w>",
    "1833": "oooo",
    "1834": "sar",
    "1835": "homework</w>",
    "1836": "disa",
    "1837": "haven't</w>",
    "1838": "quiet</w>",
    "1839": "lan",
    "1840": "nervous</w>",
    "1841": "ties</w>",
    "1842": "pt</w>",
    "1843": "ast",
    "1844": "tree</w>",
    "1845": "true</w>",
    "1846": "seemed</w>",
    "1847": "ctor</w>",
    "1848": "season</w>",
    "1849": "sil",
    "1850": "peace</w>",
    "1851": "fan",
    "1852": "het</w>",
    "1853": "out.</w>",
    "1854": "ing!</w>",
    "1855": "dec",
    "1856": "kla",
    "1857": "a.</w>",
    "1858": "broken</w>",
    "1859": "driving</w>",
    "1860": "english</w>",
    "1861": "questi",
    "1862": "ond",
    "1863": "ised</w>",
    "1864": "oc",
    "1865": "pas</w>",
    "1866": "girlfriend</w>",
    "1867": "exasper",
    "1868": "kind</w>",
    "1869": "dinner</w>",
    "1870": "talking</w>",
    "1871": "zi",
    "1872": "consi",
    "1873": "bring</w>",
    "1874": "happened</w>",
    "1875": "wrong</w>",
    "1876": "amazing</w>",
    "1877": "famil",
    "1878": "imag",
    "1879": "ly.</w>",
    "1880": "del",
    "1881": "sity</w>",
    "1882": "finished</w>",
    "1883": "movie</w>",
    "1884": "fer",
    "1885": "just",
    "1886": "ask</w>",
    "1887": "idea</w>",
    "1888": "ago</w>",
    "1889": "time",
    "1890": "voice</w>",
    "1891": "examin",
    "1892": "amer",
    "1893": "#i",
    "1894": "word</w>",
    "1895": "cold</w>",
    "1896": "plac",
    "1897": "ch.</w>",
    "1898": "it,</w>",
    "1899": "suddenly</w>",
    "1900": "damn</w>",
    "1901": "spiri",
    "1902": "second</w>",
    "1903": "drive</w>",
    "1904": "stay</w>",
    "1905": "joh",
    "1906": "leaving</w>",
    "1907": "enough</w>",
    "1908": "horri",
    "1909": "reason</w>",
    "1910": "ess.</w>",
    "1911": "ak</w>",
    "1912": "ards</w>",
    "1913": "happiness</w>",
    "1914": "he's</w>",
    "1915": "heal",
    "1916": "port",
    "1917": "up.</w>",
    "1918": "dog</w>",
    "1919": "broke</w>",
    "1920": "al.</w>",
    "1921": "res",
    "1922": "sl",
    "1923": "tow",
    "1924": "grou",
    "1925": "er,</w>",
    "1926": "in.</w>",
    "1927": "course</w>",
    "1928": "weeks</w>",
    "1929": "least</w>",
    "1930": "kids</w>",
    "1931": "gets</w>",
    "1932": "wonderful</w>",
    "1933": "rec",
    "1934": "meet</w>",
    "1935": "depressed</w>",
    "1936": "che</w>",
    "1937": "ire</w>",
    "1938": "tou",
    "1939": "gan",
    "1940": "coul",
    "1941": "dnt</w>",
    "1942": "op</w>",
    "1943": "cele",
    "1944": "run</w>",
    "1945": "ker</w>",
    "1946": "girls</w>",
    "1947": "worl",
    "1948": "gn</w>",
    "1949": "present",
    "1950": "ugh</w>",
    "1951": "embar",
    "1952": "young</w>",
    "1953": "top</w>",
    "1954": "ben",
    "1955": "anyone</w>",
    "1956": "woman</w>",
    "1957": "swee",
    "1958": "glad</w>",
    "1959": "university</w>",
    "1960": "chi",
    "1961": "story</w>",
    "1962": "joy",
    "1963": "i'd</w>",
    "1964": "months</w>",
    "1965": "hus",
    "1966": "listening</w>",
    "1967": "seri",
    "1968": "lec",
    "1969": "inste",
    "1970": "telling</w>",
    "1971": "finding</w>",
    "1972": "maybe</w>",
    "1973": "several</w>",
    "1974": "ther.</w>",
    "1975": "tice</w>",
    "1976": "cul",
    "1977": "j'",
    "1978": "bot",
    "1979": "day!</w>",
    "1980": ".\"</w>",
    "1981": "temp",
    "1982": "hot</w>",
    "1983": "fect</w>",
    "1984": "absol",
    "1985": "spend</w>",
    "1986": "emp",
    "1987": "tv</w>",
    "1988": "meeting</w>",
    "1989": "men</w>",
    "1990": "wake</w>",
    "1991": "but",
    "1992": "realized</w>",
    "1993": "ping</w>",
    "1994": "fli",
    "1995": "tional</w>",
    "1996": "ori",
    "1997": "team</w>",
    "1998": "=</w>",
    "1999": "mit",
    "2000": "hol",
    "2001": "#love</w>",
    "2002": "whom</w>",
    "2003": "face",
    "2004": "k,</w>",
    "2005": "form</w>",
    "2006": "situ",
    "2007": "you've</w>",
    "2008": "possi",
    "2009": "#f",
    "2010": "miserable</w>",
    "2011": "xmas</w>",
    "2012": "paper",
    "2013": "forward</w>",
    "2014": "ones</w>",
    "2015": "probab",
    "2016": "write</w>",
    "2017": "state</w>",
    "2018": "mid",
    "2019": "yy",
    "2020": "failed</w>",
    "2021": "embarra",
    "2022": "en,</w>",
    "2023": "special</w>",
    "2024": "name</w>",
    "2025": "qui",
    "2026": "bs</w>",
    "2027": "city</w>",
    "2028": "died.</w>",
    "2029": "parti",
    "2030": "eat</w>",
    "2031": "opp",
    "2032": "fuck",
    "2033": "fell</w>",
    "2034": "air",
    "2035": "chin",
    "2036": "ter.</w>",
    "2037": "cli",
    "2038": "cof",
    "2039": "anxious</w>",
    "2040": "tot",
    "2041": "woul",
    "2042": "usu",
    "2043": "le,</w>",
    "2044": "betwe",
    "2045": "11</w>",
    "2046": "fic",
    "2047": "delight</w>",
    "2048": "pain</w>",
    "2049": "12",
    "2050": "dismay</w>",
    "2051": "living</w>",
    "2052": "tor</w>",
    "2053": "thi",
    "2054": "received</w>",
    "2055": "understand</w>",
    "2056": "kit",
    "2057": "decided</w>",
    "2058": "probably</w>",
    "2059": "stand",
    "2060": "_-</w>",
    "2061": ":-",
    "2062": "we're</w>",
    "2063": "ign",
    "2064": "eating</w>",
    "2065": "pour</w>",
    "2066": "p.</w>",
    "2067": "radi",
    "2068": "bout</w>",
    "2069": "ate",
    "2070": "reli",
    "2071": "hosp",
    "2072": "esom",
    "2073": "brings</w>",
    "2074": "ste</w>",
    "2075": "water</w>",
    "2076": "#less</w>",
    "2077": "ea",
    "2078": "sy</w>",
    "2079": "what's</w>",
    "2080": "&gt;",
    "2081": "sting</w>",
    "2082": "tly</w>",
    "2083": "song</w>",
    "2084": "between</w>",
    "2085": "wife</w>",
    "2086": "kin</w>",
    "2087": "mr</w>",
    "2088": "ond</w>",
    "2089": "play",
    "2090": "gl",
    "2091": "flo",
    "2092": "mr",
    "2093": "lose</w>",
    "2094": "fall",
    "2095": "pho",
    "2096": "mean</w>",
    "2097": "ley</w>",
    "2098": "owing</w>",
    "2099": "tonight.</w>",
    "2100": "trip</w>",
    "2101": "ged</w>",
    "2102": "dark</w>",
    "2103": "um</w>",
    "2104": "less",
    "2105": "ute</w>",
    "2106": "hospit",
    "2107": "appar",
    "2108": "“@",
    "2109": "summ",
    "2110": "dered</w>",
    "2111": "far",
    "2112": "spo",
    "2113": "tired</w>",
    "2114": "home.</w>",
    "2115": "saying</w>",
    "2116": ";)</w>",
    "2117": "oh",
    "2118": "answ",
    "2119": "pid</w>",
    "2120": "holiday</w>",
    "2121": "#l",
    "2122": "use",
    "2123": "hit</w>",
    "2124": "hell",
    "2125": "wasn't</w>",
    "2126": "expected</w>",
    "2127": "fall</w>",
    "2128": "prof",
    "2129": ":/</w>",
    "2130": "refu",
    "2131": "cially</w>",
    "2132": "kill",
    "2133": "tears</w>",
    "2134": "ows</w>",
    "2135": "him.</w>",
    "2136": "school.</w>",
    "2137": "pur",
    "2138": "simp",
    "2139": "town</w>",
    "2140": "vid</w>",
    "2141": "disapp",
    "2142": "lol",
    "2143": "given</w>",
    "2144": "ut</w>",
    "2145": "bb",
    "2146": "cal</w>",
    "2147": "val",
    "2148": "reading</w>",
    "2149": "ult</w>",
    "2150": "y_",
    "2151": "road</w>",
    "2152": "writing</w>",
    "2153": "woke</w>",
    "2154": "contin",
    "2155": "t!</w>",
    "2156": "ple</w>",
    "2157": "forgot</w>",
    "2158": "means</w>",
    "2159": "sa</w>",
    "2160": "on,</w>",
    "2161": "guys</w>",
    "2162": "gnant</w>",
    "2163": "earing</w>",
    "2164": "ore</w>",
    "2165": "bye</w>",
    "2166": "soon</w>",
    "2167": "stupid</w>",
    "2168": "together</w>",
    "2169": "suff",
    "2170": "outside</w>",
    "2171": "ight</w>",
    "2172": "dat</w>",
    "2173": "resp",
    "2174": "%</w>",
    "2175": "ne</w>",
    "2176": "ird</w>",
    "2177": "filled</w>",
    "2178": "life.</w>",
    "2179": "phy",
    "2180": "stom",
    "2181": "alar",
    "2182": "compu",
    "2183": "@a",
    "2184": "enjoy</w>",
    "2185": "ppl</w>",
    "2186": "adv",
    "2187": "missing</w>",
    "2188": "awesom",
    "2189": "small</w>",
    "2190": "month</w>",
    "2191": "mood</w>",
    "2192": "forget</w>",
    "2193": "ation",
    "2194": ":'",
    "2195": "often</w>",
    "2196": "fully</w>",
    "2197": "kee",
    "2198": "hurt</w>",
    "2199": "running</w>",
    "2200": "inst",
    "2201": "ine",
    "2202": "mou",
    "2203": "clu",
    "2204": "ats</w>",
    "2205": "satur",
    "2206": "ations</w>",
    "2207": "sci",
    "2208": "daugh",
    "2209": "grief</w>",
    "2210": "espe",
    "2211": "certain</w>",
    "2212": "cht</w>",
    "2213": "taken</w>",
    "2214": "evening</w>",
    "2215": "ick",
    "2216": "projec",
    "2217": "ns</w>",
    "2218": "crazy</w>",
    "2219": "ge.</w>",
    "2220": "bought</w>",
    "2221": "dee",
    "2222": "hand</w>",
    "2223": "gge",
    "2224": "spent</w>",
    "2225": "ai</w>",
    "2226": "20</w>",
    "2227": "port</w>",
    "2228": "awk",
    "2229": "ility</w>",
    "2230": "arri",
    "2231": "words</w>",
    "2232": "ept</w>",
    "2233": "ddle</w>",
    "2234": "zo",
    "2235": "fru",
    "2236": "wind",
    "2237": "kill</w>",
    "2238": "ke.</w>",
    "2239": "nei",
    "2240": "shoul",
    "2241": "pac",
    "2242": "jour",
    "2243": "group</w>",
    "2244": "sense</w>",
    "2245": "jn</w>",
    "2246": "&quot;@",
    "2247": "ately</w>",
    "2248": "free</w>",
    "2249": "deep</w>",
    "2250": "lead",
    "2251": "de.</w>",
    "2252": "lie</w>",
    "2253": "ama</w>",
    "2254": "instead</w>",
    "2255": "pie",
    "2256": "pay</w>",
    "2257": "gen</w>",
    "2258": "agre",
    "2259": "ball",
    "2260": "utely</w>",
    "2261": "ts",
    "2262": "pot",
    "2263": "despond",
    "2264": "shit",
    "2265": "concerned</w>",
    "2266": "happen</w>",
    "2267": "gy",
    "2268": "sounds</w>",
    "2269": "gover",
    "2270": "especially</w>",
    "2271": "morning.</w>",
    "2272": "jan",
    "2273": "diffic",
    "2274": "es!</w>",
    "2275": "swe",
    "2276": "*</w>",
    "2277": "fran",
    "2278": "pat",
    "2279": "fee</w>",
    "2280": "squ",
    "2281": "seems</w>",
    "2282": "teacher</w>",
    "2283": "titu",
    "2284": "jesus</w>",
    "2285": "control</w>",
    "2286": "stat",
    "2287": "eu",
    "2288": "football</w>",
    "2289": "mp</w>",
    "2290": "ny",
    "2291": "import",
    "2292": "wel",
    "2293": "oni",
    "2294": "terrible</w>",
    "2295": "sent</w>",
    "2296": "studying</w>",
    "2297": "visit</w>",
    "2298": "avo",
    "2299": "wea",
    "2300": "hoo",
    "2301": "-__",
    "2302": "himself</w>",
    "2303": "o.</w>",
    "2304": "listen</w>",
    "2305": "wat</w>",
    "2306": "nu</w>",
    "2307": "secre",
    "2308": "cut</w>",
    "2309": "near</w>",
    "2310": "college</w>",
    "2311": "else</w>",
    "2312": ".....</w>",
    "2313": "s.",
    "2314": "past</w>",
    "2315": "#less&quot;</w>",
    "2316": "favor",
    "2317": "ped</w>",
    "2318": "chocol",
    "2319": "decor",
    "2320": "you,</w>",
    "2321": "king",
    "2322": "evi",
    "2323": "dence</w>",
    "2324": "americ",
    "2325": "she's</w>",
    "2326": "mon</w>",
    "2327": "drun",
    "2328": "there",
    "2329": "à</w>",
    "2330": "far</w>",
    "2331": "problems</w>",
    "2332": "maj",
    "2333": "covered</w>",
    "2334": "thing.</w>",
    "2335": "letter</w>",
    "2336": "cam",
    "2337": "mate</w>",
    "2338": "ran",
    "2339": "dream",
    "2340": "spending</w>",
    "2341": "ches</w>",
    "2342": "den</w>",
    "2343": "ran</w>",
    "2344": "experience</w>",
    "2345": "worst</w>",
    "2346": "music",
    "2347": "ite",
    "2348": "them.</w>",
    "2349": "future</w>",
    "2350": "relationship</w>",
    "2351": "different</w>",
    "2352": "couldn't</w>",
    "2353": "absolutely</w>",
    "2354": "libr",
    "2355": "lled</w>",
    "2356": "today!</w>",
    "2357": "white</w>",
    "2358": "sadness</w>",
    "2359": "sear",
    "2360": "ney</w>",
    "2361": "s?</w>",
    "2362": "loved</w>",
    "2363": "oka",
    "2364": "@b",
    "2365": "break!</w>",
    "2366": "losing</w>",
    "2367": "ross</w>",
    "2368": "numb",
    "2369": "point</w>",
    "2370": "ts.</w>",
    "2371": "ong",
    "2372": "ency</w>",
    "2373": "(:</w>",
    "2374": "light",
    "2375": "ering</w>",
    "2376": "15</w>",
    "2377": "women</w>",
    "2378": "buil",
    "2379": "cross</w>",
    "2380": "again.</w>",
    "2381": "dear</w>",
    "2382": "god",
    "2383": "chance</w>",
    "2384": "rage</w>",
    "2385": "house",
    "2386": "s..</w>",
    "2387": "won</w>",
    "2388": "dance</w>",
    "2389": "feels</w>",
    "2390": "public</w>",
    "2391": "kar",
    "2392": "husband</w>",
    "2393": "pair</w>",
    "2394": "brother",
    "2395": "ils</w>",
    "2396": "vide",
    "2397": "right",
    "2398": "cry</w>",
    "2399": "logy</w>",
    "2400": "train</w>",
    "2401": "feelings</w>",
    "2402": "os</w>",
    "2403": "@d",
    "2404": "ve.</w>",
    "2405": "11",
    "2406": "bly</w>",
    "2407": "super</w>",
    "2408": "afterno",
    "2409": "coffee</w>",
    "2410": "tex",
    "2411": "physic",
    "2412": "mari",
    "2413": "owed</w>",
    "2414": "picture",
    "2415": "sister",
    "2416": "mc",
    "2417": "towards</w>",
    "2418": "tick",
    "2419": "mac",
    "2420": "worse</w>",
    "2421": "oper",
    "2422": "messa",
    "2423": "ure",
    "2424": "others</w>",
    "2425": "finish</w>",
    "2426": "swi",
    "2427": "expression</w>",
    "2428": "asle",
    "2429": "disquiet</w>",
    "2430": "separ",
    "2431": "fine</w>",
    "2432": "cru",
    "2433": "produ",
    "2434": "view</w>",
    "2435": "cas",
    "2436": "cted</w>",
    "2437": "ari",
    "2438": "country</w>",
    "2439": "situation</w>",
    "2440": "celebr",
    "2441": "annoy",
    "2442": "hell</w>",
    "2443": "ments</w>",
    "2444": "tro",
    "2445": "although</w>",
    "2446": "dire",
    "2447": "worth</w>",
    "2448": "eas",
    "2449": "hi</w>",
    "2450": "posi",
    "2451": "key</w>",
    "2452": "fla",
    "2453": "s:</w>",
    "2454": "ga</w>",
    "2455": "camp",
    "2456": "#quot",
    "2457": "mother",
    "2458": "funny</w>",
    "2459": "earli",
    "2460": "they're</w>",
    "2461": "dding</w>",
    "2462": "busy</w>",
    "2463": "w/</w>",
    "2464": "dge</w>",
    "2465": "choo",
    "2466": "non",
    "2467": "tab",
    "2468": "move</w>",
    "2469": "serv",
    "2470": "blo",
    "2471": "form",
    "2472": "respon",
    "2473": "mis",
    "2474": "ets</w>",
    "2475": "results</w>",
    "2476": "@i",
    "2477": "chur",
    "2478": "she",
    "2479": "ken",
    "2480": "date</w>",
    "2481": ".....",
    "2482": "“@revrunwisdom:</w>",
    "2483": "di</w>",
    "2484": "away.</w>",
    "2485": "kid",
    "2486": "um",
    "2487": "#peace</w>",
    "2488": "bal",
    "2489": "tran",
    "2490": "vol",
    "2491": "blu",
    "2492": "exasperation</w>",
    "2493": "dies</w>",
    "2494": "inten",
    "2495": "ini",
    "2496": "@al",
    "2497": "however</w>",
    "2498": "jb</w>",
    "2499": "av",
    "2500": "appro",
    "2501": "@_",
    "2502": "favorite</w>",
    "2503": "began</w>",
    "2504": "her.</w>",
    "2505": "faith</w>",
    "2506": "stic</w>",
    "2507": "furious</w>",
    "2508": "edu",
    "2509": "sex",
    "2510": "argu",
    "2511": "d-",
    "2512": "cuz</w>",
    "2513": "it!</w>",
    "2514": "interest",
    "2515": "govern",
    "2516": "snow</w>",
    "2517": "awkward</w>",
    "2518": "police</w>",
    "2519": "problem</w>",
    "2520": "busin",
    "2521": "chan",
    "2522": "practice</w>",
    "2523": "office</w>",
    "2524": "war</w>",
    "2525": "#ljb</w>",
    "2526": "wants</w>",
    "2527": "year.</w>",
    "2528": "fast</w>",
    "2529": "psy",
    "2530": "terr",
    "2531": "net</w>",
    "2532": "table</w>",
    "2533": "trou",
    "2534": "pau",
    "2535": "anguish</w>",
    "2536": "matter</w>",
    "2537": "cle</w>",
    "2538": "perio",
    "2539": "fight</w>",
    "2540": "iss",
    "2541": "mum</w>",
    "2542": "ited</w>",
    "2543": "wer",
    "2544": "ges</w>",
    "2545": "begin",
    "2546": "bitch</w>",
    "2547": "ain",
    "2548": "va</w>",
    "2549": "bla",
    "2550": "+</w>",
    "2551": "stru",
    "2552": "say",
    "2553": "happen",
    "2554": "exam.</w>",
    "2555": "pain",
    "2556": "wel</w>",
    "2557": "universit",
    "2558": "exams</w>",
    "2559": "knowing</w>",
    "2560": "pati",
    "2561": "moved</w>",
    "2562": "nearly</w>",
    "2563": "sleeping</w>",
    "2564": "30",
    "2565": "resent",
    "2566": "friends.</w>",
    "2567": "suppo",
    "2568": "computer</w>",
    "2569": "all.</w>",
    "2570": "leg",
    "2571": "let's</w>",
    "2572": "ser</w>",
    "2573": "bru",
    "2574": "week.</w>",
    "2575": "reas",
    "2576": "enjo",
    "2577": "&quot;@revrunwisdom:</w>",
    "2578": "mi</w>",
    "2579": "irs</w>",
    "2580": "prote",
    "2581": "pass</w>",
    "2582": "factor</w>",
    "2583": "memor",
    "2584": "baske",
    "2585": "check</w>",
    "2586": "defin",
    "2587": "13</w>",
    "2588": "are",
    "2589": "power</w>",
    "2590": "embarrassed</w>",
    "2591": "ring</w>",
    "2592": "stuff</w>",
    "2593": "dead</w>",
    "2594": "mini",
    "2595": "sunday</w>",
    "2596": "accepted</w>",
    "2597": "gift</w>",
    "2598": "cloth",
    "2599": "pin",
    "2600": "extre",
    "2601": "hold</w>",
    "2602": "saturday</w>",
    "2603": "@revrunwisdom</w>",
    "2604": "dom",
    "2605": "nat",
    "2606": "whe",
    "2607": "inside</w>",
    "2608": "us.</w>",
    "2609": "monday</w>",
    "2610": "ical</w>",
    "2611": "stand</w>",
    "2612": "thur",
    "2613": "single</w>",
    "2614": "john</w>",
    "2615": "mark</w>",
    "2616": "assi",
    "2617": "ply</w>",
    "2618": "unt",
    "2619": "pass",
    "2620": "ago",
    "2621": "n.</w>",
    "2622": "lee",
    "2623": "@c",
    "2624": "bed",
    "2625": "boys</w>",
    "2626": "walked</w>",
    "2627": "lovely</w>",
    "2628": "team",
    "2629": "hey</w>",
    "2630": "st,</w>",
    "2631": "important</w>",
    "2632": "ema",
    "2633": "wear</w>",
    "2634": "100",
    "2635": "woo",
    "2636": "free",
    "2637": "gif",
    "2638": "hee",
    "2639": "way",
    "2640": "wow</w>",
    "2641": "cky</w>",
    "2642": "mean",
    "2643": "cannot</w>",
    "2644": "ben</w>",
    "2645": "fiel",
    "2646": "seas",
    "2647": "@la",
    "2648": "ap",
    "2649": "middle</w>",
    "2650": "--",
    "2651": "learn</w>",
    "2652": "vir",
    "2653": "stic",
    "2654": "respe",
    "2655": "fire</w>",
    "2656": "ation.</w>",
    "2657": "ffed</w>",
    "2658": "totally</w>",
    "2659": "supposed</w>",
    "2660": ":'(</w>",
    "2661": "arr",
    "2662": "titude</w>",
    "2663": "caused</w>",
    "2664": "cop",
    "2665": "shop</w>",
    "2666": "seriously</w>",
    "2667": "watched</w>",
    "2668": "vil",
    "2669": "mista",
    "2670": "today,</w>",
    "2671": "vac",
    "2672": "return</w>",
    "2673": "wow",
    "2674": "gement</w>",
    "2675": "tan",
    "2676": "-_-</w>",
    "2677": "\\\"</w>",
    "2678": "_</w>",
    "2679": "step",
    "2680": "ders</w>",
    "2681": "sin</w>",
    "2682": "you'll</w>",
    "2683": "selec",
    "2684": "house.</w>",
    "2685": "drink</w>",
    "2686": "store</w>",
    "2687": "annoyance</w>",
    "2688": "gener",
    "2689": "inted</w>",
    "2690": "four</w>",
    "2691": "lady</w>",
    "2692": "lies</w>",
    "2693": "resentful</w>",
    "2694": "giv",
    "2695": "wouldn't</w>",
    "2696": "stuck</w>",
    "2697": "share</w>",
    "2698": "dist",
    "2699": "pal",
    "2700": "tire",
    "2701": "weekend",
    "2702": "cool</w>",
    "2703": "along</w>",
    "2704": "gives</w>",
    "2705": "atten",
    "2706": "tells</w>",
    "2707": "chocolate</w>",
    "2708": "apparently</w>",
    "2709": "awesome</w>",
    "2710": "self.</w>",
    "2711": "jam",
    "2712": "quar",
    "2713": "lo</w>",
    "2714": "sound</w>",
    "2715": "box</w>",
    "2716": "indignant</w>",
    "2717": "tis",
    "2718": "parent",
    "2719": "realize</w>",
    "2720": "elec",
    "2721": "street</w>",
    "2722": "waking</w>",
    "2723": "denti",
    "2724": "nigg",
    "2725": "sat</w>",
    "2726": "throw</w>",
    "2727": "flow",
    "2728": "sses</w>",
    "2729": "shor",
    "2730": "daughter</w>",
    "2731": "obvi",
    "2732": "frea",
    "2733": "manag",
    "2734": "sorrow</w>",
    "2735": "worry</w>",
    "2736": "across</w>",
    "2737": "ted.</w>",
    "2738": "commun",
    "2739": "wit</w>",
    "2740": "us",
    "2741": "kno",
    "2742": "sof",
    "2743": "perfect</w>",
    "2744": "tee",
    "2745": "ed,</w>",
    "2746": "grandmother</w>",
    "2747": "wra",
    "2748": "cin",
    "2749": "dnes",
    "2750": "hands</w>",
    "2751": "yourself</w>",
    "2752": "liked</w>",
    "2753": "university.</w>",
    "2754": "experienc",
    "2755": "rain</w>",
    "2756": "horrified</w>",
    "2757": "rou",
    "2758": "sive</w>",
    "2759": "seem</w>",
    "2760": "thankful</w>",
    "2761": "??",
    "2762": "hair",
    "2763": "maar</w>",
    "2764": "é</w>",
    "2765": "door",
    "2766": "people",
    "2767": "spee",
    "2768": "gedi",
    "2769": "black",
    "2770": "ay",
    "2771": "tici",
    "2772": "complet",
    "2773": "expect</w>",
    "2774": "short</w>",
    "2775": "exi",
    "2776": "usually</w>",
    "2777": "clean",
    "2778": "five</w>",
    "2779": "pure</w>",
    "2780": "yo</w>",
    "2781": "sir</w>",
    "2782": "c.</w>",
    "2783": "disappo",
    "2784": "thy</w>",
    "2785": "sty</w>",
    "2786": "sse",
    "2787": "action</w>",
    "2788": "em</w>",
    "2789": "me!</w>",
    "2790": "shir",
    "2791": "crying</w>",
    "2792": "father",
    "2793": "finals</w>",
    "2794": "traff",
    "2795": "@mi",
    "2796": "twitter",
    "2797": "couple</w>",
    "2798": "snow",
    "2799": "eri",
    "2800": "sla",
    "2801": "?!",
    "2802": "student</w>",
    "2803": "neigh",
    "2804": "d'",
    "2805": "iso",
    "2806": "asleep</w>",
    "2807": "reci",
    "2808": "kk",
    "2809": "cl",
    "2810": "shall</w>",
    "2811": "worried</w>",
    "2812": "&gt;</w>",
    "2813": "work,</w>",
    "2814": "one's</w>",
    "2815": "ley",
    "2816": "beha",
    "2817": "ange</w>",
    "2818": "imagine</w>",
    "2819": "prin",
    "2820": "okay</w>",
    "2821": "cy",
    "2822": "lunch</w>",
    "2823": "une</w>",
    "2824": "ggest</w>",
    "2825": "lma",
    "2826": "mel",
    "2827": "ly,</w>",
    "2828": "confi",
    "2829": "ce,</w>",
    "2830": "#quote</w>",
    "2831": "film</w>",
    "2832": "stopped</w>",
    "2833": "back.</w>",
    "2834": "thri",
    "2835": "rac",
    "2836": "pop",
    "2837": "episo",
    "2838": "poor</w>",
    "2839": "this",
    "2840": "iled</w>",
    "2841": "erg",
    "2842": "lots</w>",
    "2843": "hearing</w>",
    "2844": "crow",
    "2845": "dream</w>",
    "2846": "company</w>",
    "2847": "crea",
    "2848": "will",
    "2849": "bie",
    "2850": "night,</w>",
    "2851": "completely</w>",
    "2852": "ain't</w>",
    "2853": "astoni",
    "2854": "ality</w>",
    "2855": "herself</w>",
    "2856": "tra</w>",
    "2857": "plan</w>",
    "2858": "omg</w>",
    "2859": "hospital</w>",
    "2860": "selves</w>",
    "2861": "amaz",
    "2862": "ally",
    "2863": "you!</w>",
    "2864": "vel</w>",
    "2865": "personal</w>",
    "2866": "stro",
    "2867": "gram",
    "2868": "aren",
    "2869": "ana</w>",
    "2870": "text</w>",
    "2871": "nd</w>",
    "2872": "plus</w>",
    "2873": "effor",
    "2874": "trust</w>",
    "2875": "p,</w>",
    "2876": "starting</w>",
    "2877": "deal</w>",
    "2878": "appo",
    "2879": "@jo",
    "2880": "liter",
    "2881": "service</w>",
    "2882": "minute</w>",
    "2883": "@ma",
    "2884": "decem",
    "2885": "kid</w>",
    "2886": "curi",
    "2887": "summer</w>",
    "2888": "danc",
    "2889": "caught</w>",
    "2890": "00</w>",
    "2891": "itely</w>",
    "2892": "fec",
    "2893": "anim",
    "2894": "side",
    "2895": "l'",
    "2896": "ahh",
    "2897": "mic",
    "2898": "canc",
    "2899": "lil</w>",
    "2900": "fur",
    "2901": "#happiness</w>",
    "2902": "greatest</w>",
    "2903": "stin",
    "2904": "essay</w>",
    "2905": "turns</w>",
    "2906": "!!!!!!!!",
    "2907": "rr",
    "2908": "cast</w>",
    "2909": "consider",
    "2910": "amuse",
    "2911": "clothes</w>",
    "2912": "order</w>",
    "2913": "oo</w>",
    "2914": "gro",
    "2915": "fortun",
    "2916": "ues</w>",
    "2917": "list</w>",
    "2918": "fat</w>",
    "2919": "number</w>",
    "2920": "dead",
    "2921": "ket</w>",
    "2922": "tes</w>",
    "2923": "incre",
    "2924": "games</w>",
    "2925": "wonder</w>",
    "2926": "ry.</w>",
    "2927": "land",
    "2928": "sty",
    "2929": "days.</w>",
    "2930": "e...</w>",
    "2931": "answer</w>",
    "2932": "hy",
    "2933": "prepar",
    "2934": "spirit</w>",
    "2935": "hello</w>",
    "2936": "putting</w>",
    "2937": "c'",
    "2938": "amusement</w>",
    "2939": "resi",
    "2940": "sour",
    "2941": "twi",
    "2942": "project</w>",
    "2943": "dru",
    "2944": "ator</w>",
    "2945": "comfor",
    "2946": "goes</w>",
    "2947": "ski",
    "2948": "rich",
    "2949": "beat</w>",
    "2950": "jk</w>",
    "2951": "discu",
    "2952": "truth</w>",
    "2953": "miffed</w>",
    "2954": "ca</w>",
    "2955": "subjec",
    "2956": "exac",
    "2957": "hen",
    "2958": "wearing</w>",
    "2959": "radio</w>",
    "2960": "business</w>",
    "2961": "step</w>",
    "2962": "tie</w>",
    "2963": "!&quot;</w>",
    "2964": "21</w>",
    "2965": "rand",
    "2966": "d:</w>",
    "2967": "case</w>",
    "2968": "brought</w>",
    "2969": "agit",
    "2970": "j'ai</w>",
    "2971": "conne",
    "2972": "cap",
    "2973": "kept</w>",
    "2974": "bewil",
    "2975": "liv",
    "2976": "ems</w>",
    "2977": "q</w>",
    "2978": "singing</w>",
    "2979": "doctor</w>",
    "2980": "nobody</w>",
    "2981": "too.</w>",
    "2982": "played</w>",
    "2983": "se,</w>",
    "2984": "boss</w>",
    "2985": "tar",
    "2986": "wher",
    "2987": "iling</w>",
    "2988": "tin",
    "2989": "fal",
    "2990": "even",
    "2991": "deser",
    "2992": "government</w>",
    "2993": "needed</w>",
    "2994": "@g",
    "2995": "certain",
    "2996": "sion",
    "2997": "within</w>",
    "2998": "sweet</w>",
    "2999": "bat",
    "3000": "naar</w>",
    "3001": "spor",
    "3002": "either</w>",
    "3003": "married</w>",
    "3004": "ented</w>",
    "3005": "fav",
    "3006": "vent</w>",
    "3007": "road",
    "3008": "huge</w>",
    "3009": "curr",
    "3010": "serious</w>",
    "3011": "thu",
    "3012": "needs</w>",
    "3013": "difficult</w>",
    "3014": "aaaa",
    "3015": "entire</w>",
    "3016": "anger",
    "3017": "mot",
    "3018": "threat",
    "3019": "a,</w>",
    "3020": "smo",
    "3021": "long",
    "3022": "rob",
    "3023": "paul</w>",
    "3024": "known</w>",
    "3025": "pleas",
    "3026": "examination</w>",
    "3027": "seme",
    "3028": "natur",
    "3029": "followed</w>",
    "3030": "sor",
    "3031": "definitely</w>",
    "3032": "longer</w>",
    "3033": "smh</w>",
    "3034": "pun",
    "3035": "straight</w>",
    "3036": "scen",
    "3037": "tain</w>",
    "3038": "speak</w>",
    "3039": "wing</w>",
    "3040": "attemp",
    "3041": "rt",
    "3042": "beli",
    "3043": "exp",
    "3044": "qui</w>",
    "3045": "con</w>",
    "3046": "winning</w>",
    "3047": "avoid</w>",
    "3048": "agitated</w>",
    "3049": "human</w>",
    "3050": "search</w>",
    "3051": "1st</w>",
    "3052": "shment</w>",
    "3053": "sna",
    "3054": "soci",
    "3055": "history</w>",
    "3056": "do.</w>",
    "3057": "tv",
    "3058": "room.</w>",
    "3059": "ade",
    "3060": "perfor",
    "3061": "happy",
    "3062": "math</w>",
    "3063": "visit",
    "3064": "thanksgiv",
    "3065": "ii",
    "3066": "pictures</w>",
    "3067": "kitch",
    "3068": "ances</w>",
    "3069": "pee",
    "3070": "box",
    "3071": "@</w>",
    "3072": "yeah",
    "3073": "thats</w>",
    "3074": "15",
    "3075": "library</w>",
    "3076": "recor",
    "3077": "@dan",
    "3078": "ting",
    "3079": "ough",
    "3080": "val</w>",
    "3081": "inclu",
    "3082": "traffic</w>",
    "3083": "laugh</w>",
    "3084": "bag</w>",
    "3085": "using</w>",
    "3086": "guil",
    "3087": "offic",
    "3088": "cy</w>",
    "3089": "standing</w>",
    "3090": "accoun",
    "3091": "ade</w>",
    "3092": "message</w>",
    "3093": "fren",
    "3094": "car.</w>",
    "3095": "much",
    "3096": "ride</w>",
    "3097": "though",
    "3098": "loss</w>",
    "3099": "tay",
    "3100": "impre",
    "3101": "shower</w>",
    "3102": "opened</w>",
    "3103": "showed</w>",
    "3104": "training</w>",
    "3105": "fol",
    "3106": "elled</w>",
    "3107": "b.</w>",
    "3108": "accept</w>",
    "3109": "asha",
    "3110": "killed</w>",
    "3111": "accident</w>",
    "3112": "flu",
    "3113": "drunk</w>",
    "3114": "roo",
    "3115": "video</w>",
    "3116": "d...</w>",
    "3117": "vy</w>",
    "3118": "heartbroken</w>",
    "3119": "somebody</w>",
    "3120": "#sar",
    "3121": "choose</w>",
    "3122": "ler",
    "3123": "elation</w>",
    "3124": "intment</w>",
    "3125": "staying</w>",
    "3126": "wednes",
    "3127": "admit",
    "3128": "accu",
    "3129": "mir",
    "3130": "begin</w>",
    "3131": "appear",
    "3132": "rema",
    "3133": "yer</w>",
    "3134": "church</w>",
    "3135": "following</w>",
    "3136": "success",
    "3137": "sac",
    "3138": "bre",
    "3139": "wedding</w>",
    "3140": "sad.</w>",
    "3141": "eat",
    "3142": "excu",
    "3143": "xed</w>",
    "3144": "cher",
    "3145": "cup</w>",
    "3146": "weather</w>",
    "3147": "scor",
    "3148": "bath",
    "3149": "joy.</w>",
    "3150": "els</w>",
    "3151": "♥</w>",
    "3152": "vin",
    "3153": "roll",
    "3154": "cat</w>",
    "3155": "cup",
    "3156": "thurs",
    "3157": "ground</w>",
    "3158": "zo</w>",
    "3159": "hang",
    "3160": "major</w>",
    "3161": "pol",
    "3162": "a_",
    "3163": "ka</w>",
    "3164": "chu",
    "3165": "upset</w>",
    "3166": "pick</w>",
    "3167": "ces</w>",
    "3168": "grade</w>",
    "3169": "extrem",
    "3170": "courage</w>",
    "3171": "doub",
    "3172": "law</w>",
    "3173": "ie</w>",
    "3174": "champ",
    "3175": ":-)</w>",
    "3176": "possible</w>",
    "3177": "basketball</w>",
    "3178": "earlier</w>",
    "3179": "aun",
    "3180": "books</w>",
    "3181": "eg",
    "3182": "moving</w>",
    "3183": "ws</w>",
    "3184": "post</w>",
    "3185": "despair</w>",
    "3186": "perha",
    "3187": "shoo",
    "3188": "come",
    "3189": "low</w>",
    "3190": "ability</w>",
    "3191": "bul",
    "3192": "rain",
    "3193": "match</w>",
    "3194": "!!!!!</w>",
    "3195": "colleag",
    "3196": "try",
    "3197": "refused</w>",
    "3198": "knows</w>",
    "3199": "const",
    "3200": "eved</w>",
    "3201": "regre",
    "3202": "send</w>",
    "3203": "ia</w>",
    "3204": "conver",
    "3205": "lun",
    "3206": "becoming</w>",
    "3207": "time,</w>",
    "3208": "albu",
    "3209": "announ",
    "3210": "super",
    "3211": "health</w>",
    "3212": "ecsta",
    "3213": "winter</w>",
    "3214": "fro",
    "3215": "jes</w>",
    "3216": "w/",
    "3217": "lic",
    "3218": "infor",
    "3219": "hahaha</w>",
    "3220": "mit</w>",
    "3221": "o'",
    "3222": "heada",
    "3223": "works</w>",
    "3224": "now,</w>",
    "3225": "tives</w>",
    "3226": "gun",
    "3227": "ath",
    "3228": "rs</w>",
    "3229": "weird</w>",
    "3230": "hh</w>",
    "3231": "power",
    "3232": "continu",
    "3233": "mur",
    "3234": "end.</w>",
    "3235": "expla",
    "3236": "like",
    "3237": "scream",
    "3238": "learned</w>",
    "3239": "biggest</w>",
    "3240": "hope",
    "3241": "cover</w>",
    "3242": "picture</w>",
    "3243": "complete</w>",
    "3244": "despite</w>",
    "3245": "extremely</w>",
    "3246": "ingly</w>",
    "3247": "champi",
    "3248": "ko",
    "3249": "dans</w>",
    "3250": "performan",
    "3251": "invol",
    "3252": "lef",
    "3253": "gue</w>",
    "3254": "span",
    "3255": "fair</w>",
    "3256": "support</w>",
    "3257": "@n",
    "3258": "vers</w>",
    "3259": "exactly</w>",
    "3260": "bet</w>",
    "3261": "sn",
    "3262": "uncle</w>",
    "3263": "ically</w>",
    "3264": "card</w>",
    "3265": "family.</w>",
    "3266": "ina</w>",
    "3267": "ian</w>",
    "3268": "“@revrunwisdom</w>",
    "3269": "moo",
    "3270": "rest",
    "3271": "page</w>",
    "3272": "friend,</w>",
    "3273": "que",
    "3274": "hot",
    "3275": "lee</w>",
    "3276": "question</w>",
    "3277": "chel",
    "3278": "strong</w>",
    "3279": "items</w>",
    "3280": "ahead</w>",
    "3281": "lights</w>",
    "3282": "ctly</w>",
    "3283": "ug",
    "3284": "198",
    "3285": "fig",
    "3286": "ang</w>",
    "3287": "\\\"",
    "3288": "m,</w>",
    "3289": "selected</w>",
    "3290": "shot</w>",
    "3291": "wt",
    "3292": "norm",
    "3293": "prou",
    "3294": "cation</w>",
    "3295": "harry</w>",
    "3296": "ashamed</w>",
    "3297": "perhaps</w>",
    "3298": "@r",
    "3299": "jer",
    "3300": "pizz",
    "3301": "angry.</w>",
    "3302": "forced</w>",
    "3303": "clear",
    "3304": "@li",
    "3305": "bac",
    "3306": "lives</w>",
    "3307": "feet</w>",
    "3308": "fish</w>",
    "3309": "res</w>",
    "3310": "gym</w>",
    "3311": "starts</w>",
    "3312": "uu",
    "3313": "remin",
    "3314": "faces</w>",
    "3315": "chic",
    "3316": "upon</w>",
    "3317": "ker",
    "3318": "compe",
    "3319": "gradu",
    "3320": "ment.</w>",
    "3321": "drinking</w>",
    "3322": "extra</w>",
    "3323": "w.</w>",
    "3324": "disgu",
    "3325": "inging</w>",
    "3326": "wall</w>",
    "3327": "weer</w>",
    "3328": "everybody</w>",
    "3329": "ecstatic</w>",
    "3330": "secret</w>",
    "3331": "second",
    "3332": "load",
    "3333": "express</w>",
    "3334": "livid</w>",
    "3335": "heb</w>",
    "3336": "mates</w>",
    "3337": "fell",
    "3338": "sen</w>",
    "3339": "re.</w>",
    "3340": "way.</w>",
    "3341": "get",
    "3342": "despondent</w>",
    "3343": "...i</w>",
    "3344": "#joy</w>",
    "3345": "cir",
    "3346": "mped</w>",
    "3347": "facebook</w>",
    "3348": "round</w>",
    "3349": "tel",
    "3350": "def",
    "3351": "eless</w>",
    "3352": "du</w>",
    "3353": "-.",
    "3354": "future",
    "3355": "word",
    "3356": "mana",
    "3357": "ham</w>",
    "3358": "focu",
    "3359": "field</w>",
    "3360": "clear</w>",
    "3361": "eve</w>",
    "3362": "tho",
    "3363": "born</w>",
    "3364": "ging</w>",
    "3365": "sign</w>",
    "3366": "note</w>",
    "3367": "entr",
    "3368": "ess,</w>",
    "3369": ":30</w>",
    "3370": "tweets</w>",
    "3371": "forever</w>",
    "3372": "well.</w>",
    "3373": "nor</w>",
    "3374": "bill</w>",
    "3375": "auth",
    "3376": "maken</w>",
    "3377": "poo",
    "3378": "allow</w>",
    "3379": "photo",
    "3380": "ming</w>",
    "3381": "tomorrow!</w>",
    "3382": "blan",
    "3383": "descri",
    "3384": "provi",
    "3385": "afternoon</w>",
    "3386": "soo",
    "3387": "offended</w>",
    "3388": "wont</w>",
    "3389": "ignor",
    "3390": "beat",
    "3391": "well,</w>",
    "3392": "anymore</w>",
    "3393": "proc",
    "3394": "deb",
    "3395": "shes</w>",
    "3396": "23</w>",
    "3397": "catch</w>",
    "3398": "regi",
    "3399": "piece</w>",
    "3400": "s_",
    "3401": "repe",
    "3402": "keeps</w>",
    "3403": "ddy</w>",
    "3404": "sinter",
    "3405": "bottle</w>",
    "3406": "organ",
    "3407": "friend's</w>",
    "3408": "literally</w>",
    "3409": "love.</w>",
    "3410": "phe",
    "3411": "start",
    "3412": "french</w>",
    "3413": "social</w>",
    "3414": "wit",
    "3415": "celebrate</w>",
    "3416": "concert</w>",
    "3417": "neighb",
    "3418": "ou</w>",
    "3419": "stop",
    "3420": "people.</w>",
    "3421": "clean</w>",
    "3422": "mary</w>",
    "3423": "mour",
    "3424": "sky",
    "3425": "@mr",
    "3426": "ing...</w>",
    "3427": "whate",
    "3428": "didnt</w>",
    "3429": "more.</w>",
    "3430": "ren",
    "3431": "sam",
    "3432": "honest",
    "3433": "discovered</w>",
    "3434": "mov",
    "3435": "shut</w>",
    "3436": "spea",
    "3437": "luck</w>",
    "3438": "kinda</w>",
    "3439": "casm</w>",
    "3440": "produc",
    "3441": "tion,</w>",
    "3442": "final",
    "3443": "devel",
    "3444": "home,</w>",
    "3445": "whether</w>",
    "3446": "50</w>",
    "3447": "-.-</w>",
    "3448": "dn</w>",
    "3449": "so,</w>",
    "3450": "fami",
    "3451": "miss",
    "3452": "care",
    "3453": "lecture",
    "3454": "dor",
    "3455": "staf",
    "3456": "ford</w>",
    "3457": "shopp",
    "3458": ":)",
    "3459": "yo",
    "3460": "psycho",
    "3461": "mouth</w>",
    "3462": "jus</w>",
    "3463": "gas</w>",
    "3464": "ers.</w>",
    "3465": "niet</w>",
    "3466": "performance</w>",
    "3467": "000</w>",
    "3468": "disgr",
    "3469": "bed.</w>",
    "3470": "close",
    "3471": "promised</w>",
    "3472": "cute</w>",
    "3473": "papers</w>",
    "3474": "period</w>",
    "3475": "large</w>",
    "3476": "chee",
    "3477": "officially</w>",
    "3478": "certainly</w>",
    "3479": "jud",
    "3480": "behavi",
    "3481": "santa</w>",
    "3482": "te.</w>",
    "3483": "official",
    "3484": "dag</w>",
    "3485": "window</w>",
    "3486": "understand",
    "3487": "rite</w>",
    "3488": "remembered</w>",
    "3489": "#in",
    "3490": "......</w>",
    "3491": "ky</w>",
    "3492": "easy</w>",
    "3493": "kic",
    "3494": "turning</w>",
    "3495": "hours.</w>",
    "3496": "lonely</w>",
    "3497": "ze",
    "3498": "row</w>",
    "3499": "court</w>",
    "3500": "@un",
    "3501": "ude</w>",
    "3502": "changed</w>",
    "3503": "bloo",
    "3504": "die",
    "3505": "admitted</w>",
    "3506": "air</w>",
    "3507": "nega",
    "3508": "dress</w>",
    "3509": "@nic",
    "3510": "&#xa;&#xa;",
    "3511": "bank</w>",
    "3512": "sun</w>",
    "3513": "th,</w>",
    "3514": "securi",
    "3515": "anxie",
    "3516": "third</w>",
    "3517": "this.</w>",
    "3518": "south</w>",
    "3519": "false</w>",
    "3520": "ck.</w>",
    "3521": "seat</w>",
    "3522": "pill",
    "3523": "ap</w>",
    "3524": "exasperated</w>",
    "3525": "cake</w>",
    "3526": "wro",
    "3527": "wrote</w>",
    "3528": "dejec",
    "3529": "dying</w>",
    "3530": "victor",
    "3531": "relationshi",
    "3532": "one,</w>",
    "3533": "kel",
    "3534": "zin",
    "3535": "sau",
    "3536": "&gt;&gt;",
    "3537": "accident.</w>",
    "3538": "lap",
    "3539": "hil",
    "3540": "attack</w>",
    "3541": "on!</w>",
    "3542": "sinterkla",
    "3543": "mijn</w>",
    "3544": "tical</w>",
    "3545": "condi",
    "3546": "loving</w>",
    "3547": "lion</w>",
    "3548": "art</w>",
    "3549": "aan</w>",
    "3550": "warm</w>",
    "3551": "#fb</w>",
    "3552": "friends!</w>",
    "3553": "learning</w>",
    "3554": "members</w>",
    "3555": "pa</w>",
    "3556": "ghtly</w>",
    "3557": "stry</w>",
    "3558": "online</w>",
    "3559": "truly</w>",
    "3560": "stairs</w>",
    "3561": "fail</w>",
    "3562": "thing,</w>",
    "3563": "attention</w>",
    "3564": "december</w>",
    "3565": "marri",
    "3566": "examp",
    "3567": "14",
    "3568": "to.</w>",
    "3569": "compla",
    "3570": "presents</w>",
    "3571": "grav",
    "3572": "lack</w>",
    "3573": "net",
    "3574": "nap</w>",
    "3575": "happy.</w>",
    "3576": "thro",
    "3577": "evidence</w>",
    "3578": "14</w>",
    "3579": "london</w>",
    "3580": "s...",
    "3581": "ssive</w>",
    "3582": "excuse</w>",
    "3583": "ender</w>",
    "3584": "sur</w>",
    "3585": "allowed</w>",
    "3586": "sh.</w>",
    "3587": "clock</w>",
    "3588": "much.</w>",
    "3589": "bon",
    "3590": "ex</w>",
    "3591": "@da",
    "3592": "gged</w>",
    "3593": "beginning</w>",
    "3594": "overjo",
    "3595": "gor",
    "3596": "thir",
    "3597": "result</w>",
    "3598": "management</w>",
    "3599": "ble.</w>",
    "3600": "person.</w>",
    "3601": "bil",
    "3602": "c'est</w>",
    "3603": "vil</w>",
    "3604": "cousin",
    "3605": "blue</w>",
    "3606": "lot",
    "3607": "co</w>",
    "3608": "class.</w>",
    "3609": "y?</w>",
    "3610": "dir",
    "3611": "diss",
    "3612": "|</w>",
    "3613": "tour",
    "3614": "lucky</w>",
    "3615": "voic",
    "3616": "tific",
    "3617": "**",
    "3618": "alarm</w>",
    "3619": "bow",
    "3620": "&lt;&lt;",
    "3621": "#go",
    "3622": "floor</w>",
    "3623": "sum</w>",
    "3624": "breaking</w>",
    "3625": "stated</w>",
    "3626": "despondency</w>",
    "3627": "spar",
    "3628": "worked</w>",
    "3629": "moun",
    "3630": "students</w>",
    "3631": "slow",
    "3632": "off.</w>",
    "3633": "there.</w>",
    "3634": "scot",
    "3635": "program",
    "3636": "pizza</w>",
    "3637": "vision</w>",
    "3638": "younger</w>",
    "3639": "here.</w>",
    "3640": "trac",
    "3641": "that.</w>",
    "3642": "yu",
    "3643": "board</w>",
    "3644": "up,</w>",
    "3645": "sex</w>",
    "3646": "ths</w>",
    "3647": "antly</w>",
    "3648": "ound",
    "3649": "studi",
    "3650": "h.</w>",
    "3651": "brown</w>",
    "3652": "bc</w>",
    "3653": "half",
    "3654": "ired</w>",
    "3655": "never",
    "3656": "bott",
    "3657": "teeth</w>",
    "3658": "expecte",
    "3659": "s!!</w>",
    "3660": "partment</w>",
    "3661": "za",
    "3662": "am.</w>",
    "3663": "abo",
    "3664": "station</w>",
    "3665": "fle",
    "3666": "doll",
    "3667": "pas",
    "3668": "collector</w>",
    "3669": "in,</w>",
    "3670": "school,</w>",
    "3671": "ounded</w>",
    "3672": "tions.</w>",
    "3673": "#fear</w>",
    "3674": "years.</w>",
    "3675": "grandfather</w>",
    "3676": "bert</w>",
    "3677": "blessed</w>",
    "3678": "save</w>",
    "3679": "pop</w>",
    "3680": "morgen</w>",
    "3681": "ge,</w>",
    "3682": "trouble</w>",
    "3683": "movies</w>",
    "3684": "disgrunt",
    "3685": "k!</w>",
    "3686": "kan</w>",
    "3687": "pissed</w>",
    "3688": "ence.</w>",
    "3689": "deter",
    "3690": "fear.</w>",
    "3691": "mais</w>",
    "3692": "incon",
    "3693": "stomach</w>",
    "3694": "ext",
    "3695": "journey</w>",
    "3696": "speaking</w>",
    "3697": "$</w>",
    "3698": "bio",
    "3699": ".~",
    "3700": "baby",
    "3701": "sort</w>",
    "3702": "christmas.</w>",
    "3703": "national</w>",
    "3704": "somewhere</w>",
    "3705": "swear</w>",
    "3706": "feared</w>",
    "3707": "bag",
    "3708": "cab",
    "3709": "ator",
    "3710": "make",
    "3711": "conversa",
    "3712": "simply</w>",
    "3713": "planned</w>",
    "3714": ":p</w>",
    "3715": "assign",
    "3716": "bey",
    "3717": "wn</w>",
    "3718": "cousin</w>",
    "3719": "themselves</w>",
    "3720": "ado</w>",
    "3721": "join</w>",
    "3722": "18</w>",
    "3723": "rt,</w>",
    "3724": "rom",
    "3725": "david</w>",
    "3726": "smell",
    "3727": "mission</w>",
    "3728": "we've</w>",
    "3729": "six</w>",
    "3730": "@fan",
    "3731": "h,</w>",
    "3732": "eye</w>",
    "3733": "infuri",
    "3734": "ing?</w>",
    "3735": "understood</w>",
    "3736": "stayed</w>",
    "3737": "secondary</w>",
    "3738": "best",
    "3739": "lied</w>",
    "3740": "holidays</w>",
    "3741": "arti",
    "3742": "disappointed</w>",
    "3743": "survi",
    "3744": "elli",
    "3745": "smell</w>",
    "3746": "quick</w>",
    "3747": "easi",
    "3748": "interesting</w>",
    "3749": "alarmed</w>",
    "3750": "sleep.</w>",
    "3751": "shirt</w>",
    "3752": "killing</w>",
    "3753": "ipo",
    "3754": "family",
    "3755": "overjoyed</w>",
    "3756": "@me",
    "3757": "und",
    "3758": "asi",
    "3759": "al,</w>",
    "3760": "threw</w>",
    "3761": "streng",
    "3762": "ghting</w>",
    "3763": "lying</w>",
    "3764": "appointment</w>",
    "3765": "anni",
    "3766": "research</w>",
    "3767": "hit",
    "3768": "falling</w>",
    "3769": "suppor",
    "3770": "decision</w>",
    "3771": "driver</w>",
    "3772": "morning,</w>",
    "3773": "gett",
    "3774": "@unite",
    "3775": "@unitedn",
    "3776": "@unitednude</w>",
    "3777": "#rt</w>",
    "3778": "#win</w>",
    "3779": "god.</w>",
    "3780": "treat",
    "3781": "ava",
    "3782": "fan</w>",
    "3783": "@em",
    "3784": "apo",
    "3785": "faith",
    "3786": "t-",
    "3787": "jeal",
    "3788": "ku",
    "3789": "inger</w>",
    "3790": "reco",
    "3791": "bro</w>",
    "3792": "heading</w>",
    "3793": "gned</w>",
    "3794": "ve,</w>",
    "3795": "emotion</w>",
    "3796": "simple</w>",
    "3797": "lol.</w>",
    "3798": "marks</w>",
    "3799": "bull",
    "3800": "local</w>",
    "3801": "when",
    "3802": "proud</w>",
    "3803": "a.",
    "3804": "xx</w>",
    "3805": "plu",
    "3806": "hadn't</w>",
    "3807": "aren't</w>",
    "3808": "s&quot;</w>",
    "3809": "insul",
    "3810": "suck",
    "3811": "rock",
    "3812": "sad",
    "3813": "@sh",
    "3814": "stol",
    "3815": "#sarcasm</w>",
    "3816": "@lu",
    "3817": "au</w>",
    "3818": "receive</w>",
    "3819": "tues",
    "3820": "shift</w>",
    "3821": "ung</w>",
    "3822": "ences</w>",
    "3823": "party",
    "3824": "daily</w>",
    "3825": "park</w>",
    "3826": "club</w>",
    "3827": "via</w>",
    "3828": "ada</w>",
    "3829": "erci",
    "3830": "iz",
    "3831": "entrance</w>",
    "3832": "d's</w>",
    "3833": "ever.</w>",
    "3834": "fill</w>",
    "3835": "expressed</w>",
    "3836": "jaja",
    "3837": "ja</w>",
    "3838": "jack",
    "3839": "bar</w>",
    "3840": "i.</w>",
    "3841": "full",
    "3842": "dogs</w>",
    "3843": "cular",
    "3844": "inve",
    "3845": "sat",
    "3846": "dit",
    "3847": "lived</w>",
    "3848": "slightly</w>",
    "3849": "y'",
    "3850": "source</w>",
    "3851": "mm</w>",
    "3852": "responsi",
    "3853": "len",
    "3854": "alle",
    "3855": "chinese</w>",
    "3856": "security</w>",
    "3857": "deeply</w>",
    "3858": "ris</w>",
    "3859": "@mar",
    "3860": "s/",
    "3861": "occa",
    "3862": "dent</w>",
    "3863": "drop</w>",
    "3864": "&lt;</w>",
    "3865": "24</w>",
    "3866": "e-",
    "3867": "green</w>",
    "3868": "bored</w>",
    "3869": "pic</w>",
    "3870": "ent,</w>",
    "3871": "euro",
    "3872": "mention</w>",
    "3873": "low",
    "3874": "jesu",
    "3875": "ho</w>",
    "3876": "g,</w>",
    "3877": "loud</w>",
    "3878": "ston</w>",
    "3879": "#ha",
    "3880": "ls</w>",
    "3881": "phi",
    "3882": "argument</w>",
    "3883": "compan",
    "3884": "ox",
    "3885": "book",
    "3886": "peac",
    "3887": "viol",
    "3888": "glor",
    "3889": "cess",
    "3890": "obviously</w>",
    "3891": "zijn</w>",
    "3892": "p!</w>",
    "3893": "gain</w>",
    "3894": "t.",
    "3895": "ay</w>",
    "3896": "ai",
    "3897": "hanging</w>",
    "3898": "wen</w>",
    "3899": "wednesday</w>",
    "3900": "astonishment</w>",
    "3901": "cry",
    "3902": "fer</w>",
    "3903": "sis</w>",
    "3904": "ars</w>",
    "3905": "waited</w>",
    "3906": "mart</w>",
    "3907": "si</w>",
    "3908": "dare</w>",
    "3909": "9:",
    "3910": "l.</w>",
    "3911": "whose</w>",
    "3912": "ideas</w>",
    "3913": "oppor",
    "3914": "experienced</w>",
    "3915": "calling</w>",
    "3916": "myself.</w>",
    "3917": "deva",
    "3918": "anger.</w>",
    "3919": "appreci",
    "3920": "everyday</w>",
    "3921": "satis",
    "3922": "gan</w>",
    "3923": "holy</w>",
    "3924": "whatever</w>",
    "3925": "):</w>",
    "3926": "mone",
    "3927": "clearly</w>",
    "3928": "airport</w>",
    "3929": "takes</w>",
    "3930": "fans</w>",
    "3931": "arrived</w>",
    "3932": "chair</w>",
    "3933": "aching</w>",
    "3934": "18",
    "3935": "jac",
    "3936": "double</w>",
    "3937": "heavy</w>",
    "3938": "god,</w>",
    "3939": "american</w>",
    "3940": "dit</w>",
    "3941": "pw",
    "3942": "bby</w>",
    "3943": "blood</w>",
    "3944": "failure</w>",
    "3945": "commit",
    "3946": "science</w>",
    "3947": "classes</w>",
    "3948": "kitchen</w>",
    "3949": "notic",
    "3950": "shame</w>",
    "3951": "45</w>",
    "3952": "thoughts</w>",
    "3953": "sweat",
    "3954": "priv",
    "3955": "nn",
    "3956": "lmao</w>",
    "3957": "fair",
    "3958": "proper",
    "3959": "thought",
    "3960": "speech</w>",
    "3961": "promise</w>",
    "3962": "ally.</w>",
    "3963": "#not</w>",
    "3964": "lik",
    "3965": "lay</w>",
    "3966": "fellow</w>",
    "3967": "frank",
    "3968": "e?</w>",
    "3969": "infuriated</w>",
    "3970": "terribly</w>",
    "3971": "ages</w>",
    "3972": "ssment</w>",
    "3973": "jack</w>",
    "3974": "#life</w>",
    "3975": "anxiety</w>",
    "3976": "town",
    "3977": "disgruntled</w>",
    "3978": "richard</w>",
    "3979": "mming</w>",
    "3980": "sky</w>",
    "3981": "quarre",
    "3982": "buying</w>",
    "3983": "ant.</w>",
    "3984": "level</w>",
    "3985": "horrible</w>",
    "3986": "attac",
    "3987": "fy</w>",
    "3988": "rose</w>",
    "3989": "led.</w>",
    "3990": "blin",
    "3991": "writ",
    "3992": "wards</w>",
    "3993": "ris",
    "3994": "grin",
    "3995": "alone.</w>",
    "3996": "emplo",
    "3997": "fit</w>",
    "3998": "centr",
    "3999": "pm</w>",
    "4000": "gedicht</w>",
    "4001": "tonight!</w>",
    "4002": "1:",
    "4003": "gay</w>",
    "4004": "langu",
    "4005": "17</w>",
    "4006": "vacation</w>",
    "4007": "whel",
    "4008": "tickets</w>",
    "4009": "separated</w>",
    "4010": "#faith</w>",
    "4011": "confidence</w>",
    "4012": "surprised</w>",
    "4013": "ured</w>",
    "4014": "ends</w>",
    "4015": "n,</w>",
    "4016": "meant</w>",
    "4017": "@official",
    "4018": "favou",
    "4019": "depression</w>",
    "4020": "hau",
    "4021": "touch</w>",
    "4022": "weekend.</w>",
    "4023": "vis",
    "4024": "loves</w>",
    "4025": "ial</w>",
    "4026": "plans</w>",
    "4027": "isa",
    "4028": "ero</w>",
    "4029": "cand",
    "4030": "regar",
    "4031": "england</w>",
    "4032": "problem",
    "4033": "anyway</w>",
    "4034": "jump</w>",
    "4035": "........",
    "4036": "mach",
    "4037": "downcast</w>",
    "4038": "-__-</w>",
    "4039": "gli",
    "4040": "stood</w>",
    "4041": "oppo",
    "4042": "report</w>",
    "4043": "sequ",
    "4044": "#god</w>",
    "4045": "desi",
    "4046": "&quot;i</w>",
    "4047": "@br",
    "4048": "particular",
    "4049": "post",
    "4050": "sters</w>",
    "4051": "@car",
    "4052": "m'",
    "4053": "nur",
    "4054": "site</w>",
    "4055": "exist",
    "4056": "funer",
    "4057": "figure</w>",
    "4058": "fake</w>",
    "4059": "laughter</w>",
    "4060": "gni",
    "4061": "ss.</w>",
    "4062": "closed</w>",
    "4063": "dancing</w>",
    "4064": "devastated</w>",
    "4065": "memories</w>",
    "4066": "questions</w>",
    "4067": "mess</w>",
    "4068": "acting</w>",
    "4069": "anne</w>",
    "4070": "happens</w>",
    "4071": "done.</w>",
    "4072": "ami",
    "4073": "mo</w>",
    "4074": "gotten</w>",
    "4075": "among</w>",
    "4076": "compli",
    "4077": "cheer",
    "4078": "cream</w>",
    "4079": "headache</w>",
    "4080": "sed.</w>",
    "4081": "bath</w>",
    "4082": "session</w>",
    "4083": "kne",
    "4084": "episode</w>",
    "4085": "dest</w>",
    "4086": "asking</w>",
    "4087": "resta",
    "4088": "restaur",
    "4089": "develop",
    "4090": "(i</w>",
    "4091": "ference</w>",
    "4092": "achi",
    "4093": "mind",
    "4094": "speci",
    "4095": "wood</w>",
    "4096": "bell",
    "4097": "pper</w>",
    "4098": "se!</w>",
    "4099": "]</w>",
    "4100": "ings.</w>",
    "4101": "yay</w>",
    "4102": "spread</w>",
    "4103": "older</w>",
    "4104": "awake</w>",
    "4105": "competi",
    "4106": "elling</w>",
    "4107": "bright</w>",
    "4108": "birth</w>",
    "4109": "pak",
    "4110": "fly</w>",
    "4111": "esca",
    "4112": "@mat",
    "4113": "dude</w>",
    "4114": "cel",
    "4115": "guilty</w>",
    "4116": "teen",
    "4117": "bringing</w>",
    "4118": "…</w>",
    "4119": "ook",
    "4120": "zen</w>",
    "4121": "tea</w>",
    "4122": "#</w>",
    "4123": "manager</w>",
    "4124": "ness.</w>",
    "4125": "john",
    "4126": "unfortun",
    "4127": "quick",
    "4128": "christ</w>",
    "4129": "treated</w>",
    "4130": "tu</w>",
    "4131": "ra</w>",
    "4132": "e:</w>",
    "4133": "steal</w>",
    "4134": "spira",
    "4135": "amused</w>",
    "4136": "phon",
    "4137": "welcome</w>",
    "4138": "pants</w>",
    "4139": "resu",
    "4140": "swa",
[...]
